<pad>	0
</s>	0
<s>	0
<unk>	0
<0x00>	0
<0x01>	0
<0x02>	0
<0x03>	0
<0x04>	0
<0x05>	0
<0x06>	0
<0x07>	0
<0x08>	0
<0x09>	0
<0x0A>	0
<0x0B>	0
<0x0C>	0
<0x0D>	0
<0x0E>	0
<0x0F>	0
<0x10>	0
<0x11>	0
<0x12>	0
<0x13>	0
<0x14>	0
<0x15>	0
<0x16>	0
<0x17>	0
<0x18>	0
<0x19>	0
<0x1A>	0
<0x1B>	0
<0x1C>	0
<0x1D>	0
<0x1E>	0
<0x1F>	0
<0x20>	0
<0x21>	0
<0x22>	0
<0x23>	0
<0x24>	0
<0x25>	0
<0x26>	0
<0x27>	0
<0x28>	0
<0x29>	0
<0x2A>	0
<0x2B>	0
<0x2C>	0
<0x2D>	0
<0x2E>	0
<0x2F>	0
<0x30>	0
<0x31>	0
<0x32>	0
<0x33>	0
<0x34>	0
<0x35>	0
<0x36>	0
<0x37>	0
<0x38>	0
<0x39>	0
<0x3A>	0
<0x3B>	0
<0x3C>	0
<0x3D>	0
<0x3E>	0
<0x3F>	0
<0x40>	0
<0x41>	0
<0x42>	0
<0x43>	0
<0x44>	0
<0x45>	0
<0x46>	0
<0x47>	0
<0x48>	0
<0x49>	0
<0x4A>	0
<0x4B>	0
<0x4C>	0
<0x4D>	0
<0x4E>	0
<0x4F>	0
<0x50>	0
<0x51>	0
<0x52>	0
<0x53>	0
<0x54>	0
<0x55>	0
<0x56>	0
<0x57>	0
<0x58>	0
<0x59>	0
<0x5A>	0
<0x5B>	0
<0x5C>	0
<0x5D>	0
<0x5E>	0
<0x5F>	0
<0x60>	0
<0x61>	0
<0x62>	0
<0x63>	0
<0x64>	0
<0x65>	0
<0x66>	0
<0x67>	0
<0x68>	0
<0x69>	0
<0x6A>	0
<0x6B>	0
<0x6C>	0
<0x6D>	0
<0x6E>	0
<0x6F>	0
<0x70>	0
<0x71>	0
<0x72>	0
<0x73>	0
<0x74>	0
<0x75>	0
<0x76>	0
<0x77>	0
<0x78>	0
<0x79>	0
<0x7A>	0
<0x7B>	0
<0x7C>	0
<0x7D>	0
<0x7E>	0
<0x7F>	0
<0x80>	0
<0x81>	0
<0x82>	0
<0x83>	0
<0x84>	0
<0x85>	0
<0x86>	0
<0x87>	0
<0x88>	0
<0x89>	0
<0x8A>	0
<0x8B>	0
<0x8C>	0
<0x8D>	0
<0x8E>	0
<0x8F>	0
<0x90>	0
<0x91>	0
<0x92>	0
<0x93>	0
<0x94>	0
<0x95>	0
<0x96>	0
<0x97>	0
<0x98>	0
<0x99>	0
<0x9A>	0
<0x9B>	0
<0x9C>	0
<0x9D>	0
<0x9E>	0
<0x9F>	0
<0xA0>	0
<0xA1>	0
<0xA2>	0
<0xA3>	0
<0xA4>	0
<0xA5>	0
<0xA6>	0
<0xA7>	0
<0xA8>	0
<0xA9>	0
<0xAA>	0
<0xAB>	0
<0xAC>	0
<0xAD>	0
<0xAE>	0
<0xAF>	0
<0xB0>	0
<0xB1>	0
<0xB2>	0
<0xB3>	0
<0xB4>	0
<0xB5>	0
<0xB6>	0
<0xB7>	0
<0xB8>	0
<0xB9>	0
<0xBA>	0
<0xBB>	0
<0xBC>	0
<0xBD>	0
<0xBE>	0
<0xBF>	0
<0xC0>	0
<0xC1>	0
<0xC2>	0
<0xC3>	0
<0xC4>	0
<0xC5>	0
<0xC6>	0
<0xC7>	0
<0xC8>	0
<0xC9>	0
<0xCA>	0
<0xCB>	0
<0xCC>	0
<0xCD>	0
<0xCE>	0
<0xCF>	0
<0xD0>	0
<0xD1>	0
<0xD2>	0
<0xD3>	0
<0xD4>	0
<0xD5>	0
<0xD6>	0
<0xD7>	0
<0xD8>	0
<0xD9>	0
<0xDA>	0
<0xDB>	0
<0xDC>	0
<0xDD>	0
<0xDE>	0
<0xDF>	0
<0xE0>	0
<0xE1>	0
<0xE2>	0
<0xE3>	0
<0xE4>	0
<0xE5>	0
<0xE6>	0
<0xE7>	0
<0xE8>	0
<0xE9>	0
<0xEA>	0
<0xEB>	0
<0xEC>	0
<0xED>	0
<0xEE>	0
<0xEF>	0
<0xF0>	0
<0xF1>	0
<0xF2>	0
<0xF3>	0
<0xF4>	0
<0xF5>	0
<0xF6>	0
<0xF7>	0
<0xF8>	0
<0xF9>	0
<0xFA>	0
<0xFB>	0
<0xFC>	0
<0xFD>	0
<0xFE>	0
<0xFF>	0
▁t	-0
in	-1
▁a	-2
er	-3
on	-4
en	-5
es	-6
ti	-7
▁th	-8
▁c	-9
▁s	-10
re	-11
al	-12
▁p	-13
an	-14
▁d	-15
or	-16
is	-17
▁the	-18
at	-19
▁w	-20
▁m	-21
ic	-22
ar	-23
ing	-24
it	-25
tion	-26
ed	-27
▁o	-28
▁in	-29
▁f	-30
ro	-31
▁b	-32
nd	-33
le	-34
ent	-35
▁e	-36
ou	-37
▁h	-38
om	-39
▁and	-40
▁of	-41
as	-42
▁l	-43
ec	-44
▁re	-45
▁to	-46
ly	-47
ation	-48
ac	-49
▁T	-50
st	-51
et	-52
ol	-53
▁n	-54
ve	-55
ur	-56
▁Th	-57
▁con	-58
il	-59
▁de	-60
ul	-61
ig	-62
if	-63
im	-64
ra	-65
id	-66
▁u	-67
ow	-68
▁g	-69
ment	-70
ce	-71
ch	-72
▁wh	-73
ver	-74
el	-75
▁com	-76
qu	-77
▁pro	-78
▁r	-79
tic	-80
ter	-81
▁st	-82
▁The	-83
th	-84
os	-85
ess	-86
▁that	-87
ir	-88
em	-89
▁for	-90
us	-91
am	-92
ad	-93
▁v	-94
▁I	-95
ith	-96
▁is	-97
ut	-98
ion	-99
▁mo	-100
ab	-101
est	-102
ate	-103
ie	-104
▁be	-105
pp	-106
▁with	-107
ist	-108
ct	-109
▁ex	-110
▁su	-111
▁comp	-112
▁as	-113
▁S	-114
ri	-115
▁sp	-116
ity	-117
ain	-118
▁on	-119
ot	-120
▁A	-121
ant	-122
ical	-123
ci	-124
op	-125
▁H	-126
un	-127
ers	-128
▁al	-129
▁en	-130
od	-131
um	-132
and	-133
ke	-134
ge	-135
▁C	-136
▁ch	-137
▁pr	-138
▁it	-139
▁or	-140
ure	-141
▁y	-142
▁an	-143
▁W	-144
ations	-145
▁un	-146
ific	-147
og	-148
ere	-149
di	-150
tive	-151
ld	-152
rom	-153
ich	-154
▁le	-155
ts	-156
ay	-157
▁cont	-158
ru	-159
▁par	-160
▁qu	-161
ese	-162
per	-163
end	-164
ally	-165
our	-166
igh	-167
ff	-168
iz	-169
▁1	-170
▁di	-171
ach	-172
▁ab	-173
▁app	-174
▁ac	-175
▁spec	-176
ap	-177
▁se	-178
▁li	-179
▁B	-180
▁from	-181
fer	-182
out	-183
▁can	-184
▁M	-185
▁im	-186
tions	-187
ans	-188
te	-189
ould	-190
▁was	-191
▁This	-192
▁P	-193
rou	-194
pl	-195
ign	-196
oc	-197
▁E	-198
ous	-199
▁ad	-200
▁are	-201
▁k	-202
ence	-203
gh	-204
ens	-205
▁D	-206
lu	-207
▁dif	-208
▁-	-209
▁sy	-210
ies	-211
▁their	-212
▁this	-213
▁by	-214
ia	-215
ile	-216
du	-217
▁more	-218
▁la	-219
ak	-220
enti	-221
▁ne	-222
ag	-223
orm	-224
▁rel	-225
ary	-226
▁per	-227
ated	-228
▁z	-229
▁L	-230
▁und	-231
▁cons	-232
▁sh	-233
ine	-234
ork	-235
ance	-236
her	-237
▁"	-238
ort	-239
act	-240
all	-241
iti	-242
ect	-243
▁ha	-244
▁j	-245
ult	-246
vid	-247
▁F	-248
▁like	-249
▁inter	-250
vel	-251
▁tr	-252
vol	-253
▁res	-254
▁pre	-255
▁about	-256
se	-257
▁R	-258
▁inc	-259
ven	-260
pr	-261
▁do	-262
ip	-263
ard	-264
▁differ	-265
we	-266
ome	-267
▁at	-268
▁inf	-269
▁bet	-270
▁Wh	-271
▁comple	-272
ces	-273
stem	-274
cess	-275
ari	-276
tical	-277
ight	-278
▁tra	-279
are	-280
▁G	-281
ech	-282
▁How	-283
ell	-284
▁des	-285
ular	-286
▁specific	-287
ial	-288
able	-289
ual	-290
ates	-291
olog	-292
age	-293
▁he	-294
ther	-295
de	-296
▁imp	-297
▁system	-298
▁these	-299
▁ar	-300
ib	-301
ish	-302
▁me	-303
▁so	-304
▁you	-305
ors	-306
▁reg	-307
▁how	-308
▁pl	-309
▁appro	-310
ments	-311
▁than	-312
▁would	-313
ms	-314
▁(	-315
▁they	-316
▁sign	-317
ill	-318
▁cre	-319
ong	-320
▁not	-321
ang	-322
av	-323
ction	-324
▁int	-325
ati	-326
▁eff	-327
▁which	-328
▁under	-329
ween	-330
ass	-331
▁between	-332
▁but	-333
▁dis	-334
rough	-335
▁N	-336
▁cl	-337
esent	-338
▁2	-339
▁pol	-340
▁have	-341
ution	-342
▁its	-343
▁all	-344
ore	-345
ural	-346
▁his	-347
ves	-348
▁bec	-349
ire	-350
ory	-351
▁est	-352
▁comm	-353
▁ro	-354
ne	-355
yp	-356
▁through	-357
vers	-358
▁when	-359
der	-360
▁partic	-361
▁signific	-362
ast	-363
tain	-364
▁while	-365
con	-366
▁co	-367
ding	-368
▁complex	-369
lic	-370
ating	-371
▁work	-372
ever	-373
▁trans	-374
cial	-375
▁we	-376
▁ma	-377
▁different	-378
ue	-379
▁str	-380
oun	-381
▁det	-382
me	-383
ater	-384
▁man	-385
ph	-386
▁em	-387
ail	-388
ys	-389
**	-390
ility	-391
▁19	-392
tern	-393
fic	-394
ive	-395
▁approach	-396
▁However	-397
ational	-398
ust	-399
oth	-400
ame	-401
00	-402
▁po	-403
▁over	-404
▁met	-405
ruct	-406
▁requ	-407
erv	-408
ple	-409
▁gen	-410
aus	-411
ced	-412
ud	-413
ative	-414
velop	-415
rib	-416
ament	-417
▁dist	-418
▁significant	-419
▁ph	-420
ten	-421
uring	-422
▁develop	-423
hip	-424
ric	-425
▁K	-426
▁other	-427
ite	-428
▁repr	-429
ition	-430
dition	-431
▁where	-432
und	-433
ear	-434
▁U	-435
ll	-436
ically	-437
form	-438
abl	-439
▁us	-440
▁In	-441
ond	-442
ather	-443
▁pos	-444
ures	-445
▁represent	-446
ide	-447
▁particular	-448
erm	-449
▁rem	-450
▁J	-451
one	-452
ath	-453
ze	-454
pt	-455
li	-456
ities	-457
lect	-458
▁go	-459
▁rec	-460
▁dec	-461
▁some	-462
▁typ	-463
▁O	-464
▁pe	-465
▁invol	-466
iv	-467
ber	-468
▁act	-469
▁et	-470
▁ob	-471
tit	-472
ex	-473
▁au	-474
ound	-475
ace	-476
ord	-477
▁form	-478
ry	-479
ack	-480
ung	-481
so	-482
▁your	-483
gg	-484
ub	-485
pend	-486
▁provid	-487
▁main	-488
ni	-489
dic	-490
ase	-491
ents	-492
▁what	-493
▁dem	-494
▁hist	-495
zy	-496
▁process	-497
ions	-498
ulti	-499
▁ra	-500
▁mar	-501
▁were	-502
▁has	-503
ism	-504
ian	-505
▁inclu	-506
▁fact	-507
ty	-508
▁leg	-509
ros	-510
▁sim	-511
ons	-512
▁i	-513
▁sub	-514
ien	-515
▁both	-516
▁vari	-517
▁tim	-518
▁effec	-519
cy	-520
go	-521
ose	-522
ier	-523
▁die	-524
▁struct	-525
▁influ	-526
▁rather	-527
conom	-528
▁pers	-529
▁que	-530
▁cult	-531
▁el	-532
stand	-533
▁es	-534
ress	-535
que	-536
ateg	-537
ale	-538
▁col	-539
ological	-540
ough	-541
▁sc	-542
▁pot	-543
ble	-544
ider	-545
tiv	-546
ting	-547
▁during	-548
▁V	-549
ased	-550
ized	-551
▁fund	-552
ving	-553
▁econom	-554
▁produ	-555
▁ref	-556
▁cap	-557
▁require	-558
ych	-559
por	-560
ually	-561
▁conf	-562
echan	-563
str	-564
eng	-565
ok	-566
▁ag	-567
work	-568
▁may	-569
▁ver	-570
▁nat	-571
▁Ch	-572
ved	-573
▁mechan	-574
▁Y	-575
▁fun	-576
▁into	-577
ause	-578
▁fin	-579
▁tech	-580
▁particularly	-581
▁ins	-582
▁understand	-583
▁oper	-584
▁cent	-585
▁relations	-586
▁def	-587
gan	-588
▁am	-589
▁poli	-590
▁der	-591
rit	-592
lo	-593
ied	-594
▁need	-595
ablish	-596
wn	-597
low	-598
▁acc	-599
▁dire	-600
arch	-601
▁ext	-602
▁prac	-603
▁consider	-604
ise	-605
▁pat	-606
▁sur	-607
az	-608
les	-609
▁out	-610
ious	-611
ice	-612
▁no	-613
▁ter	-614
tim	-615
▁med	-616
▁te	-617
ople	-618
ón	-619
ient	-620
▁one	-621
erg	-622
▁establish	-623
par	-624
▁fra	-625
atic	-626
▁maintain	-627
che	-628
ross	-629
ful	-630
▁exp	-631
▁had	-632
ran	-633
▁relationship	-634
▁fundament	-635
ree	-636
▁might	-637
▁ke	-638
▁histor	-639
▁high	-640
ability	-641
▁mod	-642
▁ge	-643
▁char	-644
ests	-645
▁del	-646
▁gener	-647
ential	-648
ower	-649
istic	-650
▁op	-651
▁bro	-652
▁resp	-653
▁remain	-654
▁evol	-655
wo	-656
▁people	-657
ether	-658
▁who	-659
als	-660
▁pop	-661
cc	-662
▁does	-663
ditions	-664
ep	-665
iss	-666
▁supp	-667
▁sugg	-668
its	-669
ount	-670
▁could	-671
uc	-672
▁social	-673
aking	-674
▁strateg	-675
ilit	-676
▁multi	-677
ks	-678
▁exper	-679
▁inde	-680
▁ques	-681
▁economic	-682
▁political	-683
ene	-684
▁conc	-685
hod	-686
ior	-687
▁les	-688
ays	-689
ind	-690
▁val	-691
iod	-692
▁though	-693
now	-694
▁ser	-695
▁systems	-696
▁them	-697
▁While	-698
▁also	-699
▁if	-700
tis	-701
▁pattern	-702
▁tradition	-703
▁contro	-704
▁**	-705
▁er	-706
▁factors	-707
▁anal	-708
▁indi	-709
reat	-710
▁expl	-711
▁been	-712
int	-713
arly	-714
▁including	-715
acter	-716
▁detail	-717
▁fe	-718
rop	-719
vern	-720
▁av	-721
▁cultural	-722
▁method	-723
row	-724
ata	-725
▁20	-726
▁period	-727
▁actually	-728
▁chall	-729
ears	-730
au	-731
ij	-732
▁sec	-733
▁ele	-734
ulation	-735
ione	-736
▁prim	-737
ings	-738
▁direct	-739
▁cor	-740
iron	-741
▁development	-742
▁He	-743
pec	-744
▁time	-745
elf	-746
▁across	-747
▁ass	-748
▁prin	-749
▁being	-750
▁individ	-751
▁grou	-752
▁broad	-753
▁St	-754
▁car	-755
▁depend	-756
ost	-757
ren	-758
▁most	-759
pre	-760
ional	-761
ization	-762
▁relig	-763
▁such	-764
▁hel	-765
▁lead	-766
ann	-767
▁because	-768
▁beh	-769
▁princi	-770
mer	-771
▁contin	-772
▁cur	-773
ences	-774
▁num	-775
▁question	-776
▁lim	-777
▁there	-778
▁govern	-779
min	-780
▁new	-781
res	-782
▁individual	-783
▁prot	-784
ection	-785
▁proper	-786
▁frame	-787
▁import	-788
▁even	-789
▁mark	-790
▁proble	-791
▁pres	-792
▁commun	-793
ps	-794
▁occ	-795
ision	-796
▁aff	-797
▁att	-798
ont	-799
▁organ	-800
omes	-801
▁sever	-802
ral	-803
▁tem	-804
ues	-805
▁moder	-806
ange	-807
he	-808
▁legal	-809
viron	-810
▁techn	-811
▁suc	-812
▁likely	-813
▁inform	-814
▁incre	-815
ties	-816
ern	-817
▁framework	-818
ym	-819
▁within	-820
to	-821
vent	-822
▁did	-823
▁key	-824
▁gra	-825
▁hum	-826
ared	-827
ogra	-828
▁long	-829
▁sol	-830
ión	-831
isms	-832
▁know	-833
▁si	-834
▁environ	-835
▁sch	-836
▁3	-837
king	-838
no	-839
ination	-840
▁sa	-841
▁war	-842
sure	-843
▁los	-844
omet	-845
▁What	-846
▁loc	-847
▁adv	-848
cz	-849
▁prog	-850
▁So	-851
▁fundamental	-852
▁use	-853
▁reflect	-854
yn	-855
ward	-856
▁vers	-857
ins	-858
ages	-859
▁chang	-860
iel	-861
▁cer	-862
▁conditions	-863
ately	-864
▁historical	-865
▁lo	-866
ible	-867
▁broader	-868
ption	-869
▁una	-870
alth	-871
ration	-872
ild	-873
stan	-874
▁character	-875
ane	-876
▁distin	-877
entially	-878
▁lar	-879
▁allow	-880
▁her	-881
▁success	-882
lich	-883
▁person	-884
ases	-885
esearch	-886
irst	-887
▁typically	-888
▁part	-889
▁power	-890
inal	-891
rent	-892
▁stand	-893
▁prof	-894
ood	-895
▁demon	-896
▁const	-897
▁When	-898
▁sit	-899
▁each	-900
ae	-901
▁up	-902
ensive	-903
val	-904
ade	-905
ext	-906
ob	-907
ques	-908
▁limit	-909
ah	-910
▁van	-911
▁provide	-912
oph	-913
▁il	-914
▁These	-915
▁ess	-916
▁modern	-917
▁af	-918
▁comb	-919
▁represents	-920
▁my	-921
ted	-922
▁demonstr	-923
▁che	-924
▁rep	-925
round	-926
urs	-927
ize	-928
ality	-929
▁mon	-930
▁influence	-931
▁mechanisms	-932
▁non	-933
▁serv	-934
▁conn	-935
▁effective	-936
▁é	-937
▁intern	-938
▁law	-939
▁defin	-940
▁mem	-941
oy	-942
▁ris	-943
▁function	-944
▁will	-945
▁id	-946
teg	-947
▁without	-948
▁meas	-949
ology	-950
▁ent	-951
ublic	-952
ron	-953
▁It	-954
ribut	-955
▁milit	-956
▁make	-957
gen	-958
ram	-959
▁two	-960
▁auth	-961
cept	-962
),	-963
io	-964
▁sm	-965
▁fol	-966
▁just	-967
▁phys	-968
▁control	-969
lement	-970
ants	-971
▁*	-972
▁challeng	-973
▁research	-974
titution	-975
▁involves	-976
▁class	-977
▁patterns	-978
▁traditional	-979
▁wor	-980
▁fac	-981
▁structure	-982
▁same	-983
▁exist	-984
▁equ	-985
irc	-986
▁multiple	-987
ft	-988
ng	-989
▁ta	-990
▁unsure	-991
ów	-992
▁detailed	-993
▁count	-994
acy	-995
▁religious	-996
ysis	-997
ines	-998
▁important	-999
▁determ	-1000
▁state	-1001
▁ed	-1002
els	-1003
▁stu	-1004
ands	-1005
▁own	-1006
til	-1007
rain	-1008
▁found	-1009
▁mus	-1010
ograph	-1011
▁design	-1012
▁fam	-1013
ily	-1014
ta	-1015
▁integ	-1016
▁any	-1017
▁behav	-1018
▁often	-1019
▁cal	-1020
▁redu	-1021
ets	-1022
▁Re	-1023
▁maj	-1024
▁inst	-1025
▁polic	-1026
▁whether	-1027
very	-1028
▁na	-1029
▁various	-1030
ital	-1031
▁established	-1032
▁obs	-1033
old	-1034
ety	-1035
iter	-1036
▁indeed	-1037
▁first	-1038
cing	-1039
▁specif	-1040
▁support	-1041
▁compar	-1042
▁For	-1043
▁orig	-1044
ctions	-1045
▁level	-1046
▁suggests	-1047
és	-1048
itive	-1049
▁La	-1050
ters	-1051
▁information	-1052
▁why	-1053
▁making	-1054
▁analysis	-1055
▁evolution	-1056
ogn	-1057
chen	-1058
▁significantly	-1059
▁disc	-1060
omm	-1061
▁18	-1062
▁come	-1063
not	-1064
be	-1065
uch	-1066
▁show	-1067
▁perform	-1068
ness	-1069
ected	-1070
la	-1071
▁identi	-1072
ury	-1073
▁mean	-1074
▁initi	-1075
ik	-1076
▁data	-1077
▁move	-1078
▁only	-1079
▁add	-1080
▁situ	-1081
▁cell	-1082
ics	-1083
za	-1084
▁used	-1085
▁Z	-1086
red	-1087
▁sym	-1088
▁4	-1089
jec	-1090
▁follow	-1091
▁min	-1092
urop	-1093
▁help	-1094
▁major	-1095
▁those	-1096
▁pri	-1097
▁health	-1098
▁position	-1099
▁5	-1100
▁circ	-1101
▁human	-1102
▁approaches	-1103
▁bu	-1104
▁evid	-1105
pos	-1106
▁after	-1107
▁several	-1108
▁changes	-1109
ique	-1110
ature	-1111
▁many	-1112
▁Un	-1113
▁early	-1114
ick	-1115
ife	-1116
ning	-1117
▁gu	-1118
▁nature	-1119
▁transform	-1120
▁bel	-1121
▁Q	-1122
omen	-1123
▁prec	-1124
ape	-1125
nie	-1126
ying	-1127
tire	-1128
▁military	-1129
▁tru	-1130
▁nec	-1131
arily	-1132
▁recogn	-1133
meric	-1134
ris	-1135
▁environment	-1136
ación	-1137
▁real	-1138
▁ach	-1139
cul	-1140
▁imm	-1141
ars	-1142
▁press	-1143
ocus	-1144
▁grow	-1145
ples	-1146
▁poss	-1147
uss	-1148
▁current	-1149
led	-1150
kt	-1151
▁applic	-1152
▁public	-1153
▁continu	-1154
▁adap	-1155
▁problem	-1156
▁bene	-1157
plic	-1158
press	-1159
iew	-1160
ource	-1161
▁mater	-1162
ires	-1163
▁exam	-1164
▁lang	-1165
rast	-1166
▁care	-1167
▁achie	-1168
▁br	-1169
▁create	-1170
▁set	-1171
arding	-1172
ject	-1173
▁certain	-1174
▁treat	-1175
▁cannot	-1176
ights	-1177
▁author	-1178
ources	-1179
lear	-1180
▁desc	-1181
▁elect	-1182
▁understanding	-1183
atory	-1184
▁become	-1185
▁specifically	-1186
▁Americ	-1187
▁special	-1188
▁à	-1189
▁mat	-1190
ories	-1191
xim	-1192
ined	-1193
ium	-1194
art	-1195
▁present	-1196
▁market	-1197
ema	-1198
for	-1199
▁las	-1200
▁again	-1201
▁due	-1202
ark	-1203
▁indu	-1204
▁standard	-1205
▁shif	-1206
amente	-1207
▁focus	-1208
▁effic	-1209
▁sci	-1210
▁energ	-1211
▁Le	-1212
▁=	-1213
hing	-1214
▁potential	-1215
iet	-1216
fore	-1217
▁fut	-1218
▁don	-1219
arm	-1220
▁sti	-1221
▁remains	-1222
tional	-1223
▁An	-1224
▁behavior	-1225
▁cri	-1226
▁tot	-1227
▁bas	-1228
▁water	-1229
▁As	-1230
▁vo	-1231
▁end	-1232
ger	-1233
ument	-1234
na	-1235
ute	-1236
titutional	-1237
yond	-1238
▁bre	-1239
▁rest	-1240
▁activ	-1241
▁stud	-1242
any	-1243
▁une	-1244
▁pra	-1245
abil	-1246
nych	-1247
▁based	-1248
▁became	-1249
▁using	-1250
▁well	-1251
urb	-1252
▁iss	-1253
atis	-1254
ał	-1255
▁opp	-1256
urope	-1257
▁maintaining	-1258
▁math	-1259
▁our	-1260
mente	-1261
rim	-1262
▁small	-1263
▁langu	-1264
▁government	-1265
ref	-1266
▁should	-1267
▁get	-1268
000	-1269
ining	-1270
▁complete	-1271
ices	-1272
ense	-1273
▁beyond	-1274
urch	-1275
ody	-1276
▁indic	-1277
▁dyn	-1278
minist	-1279
▁predic	-1280
den	-1281
▁norm	-1282
ason	-1283
▁implement	-1284
▁sk	-1285
ina	-1286
▁concern	-1287
▁creating	-1288
▁His	-1289
esting	-1290
▁change	-1291
ently	-1292
▁du	-1293
ffic	-1294
▁diffic	-1295
je	-1296
ink	-1297
▁him	-1298
bers	-1299
ries	-1300
▁gr	-1301
utions	-1302
▁compared	-1303
▁arch	-1304
▁entire	-1305
ince	-1306
▁creates	-1307
▁spe	-1308
▁better	-1309
▁common	-1310
ols	-1311
▁later	-1312
▁necess	-1313
ante	-1314
▁cost	-1315
oh	-1316
▁stat	-1317
▁bl	-1318
ją	-1319
▁dé	-1320
▁ful	-1321
▁methods	-1322
▁eng	-1323
▁years	-1324
read	-1325
▁life	-1326
▁call	-1327
▁address	-1328
omin	-1329
rodu	-1330
▁contribut	-1331
▁natural	-1332
amp	-1333
▁occur	-1334
iven	-1335
▁impact	-1336
▁aut	-1337
own	-1338
tice	-1339
ales	-1340
▁interpre	-1341
ency	-1342
▁created	-1343
▁material	-1344
▁regul	-1345
▁Ar	-1346
▁vol	-1347
▁indust	-1348
▁evidence	-1349
▁back	-1350
▁simil	-1351
akes	-1352
▁role	-1353
▁hand	-1354
▁De	-1355
▁6	-1356
▁less	-1357
▁model	-1358
▁world	-1359
aw	-1360
▁terms	-1361
▁201	-1362
ści	-1363
▁observ	-1364
▁bo	-1365
▁processes	-1366
eral	-1367
▁administ	-1368
ield	-1369
▁works	-1370
ix	-1371
▁made	-1372
▁future	-1373
ats	-1374
ew	-1375
land	-1376
▁access	-1377
▁vis	-1378
▁practical	-1379
verse	-1380
▁around	-1381
▁cour	-1382
▁population	-1383
▁caus	-1384
▁ide	-1385
▁see	-1386
▁potentially	-1387
hr	-1388
ited	-1389
▁against	-1390
▁measure	-1391
▁cru	-1392
ner	-1393
▁Ind	-1394
ploy	-1395
▁city	-1396
▁energy	-1397
▁influen	-1398
air	-1399
▁Is	-1400
ette	-1401
▁enc	-1402
▁fil	-1403
▁Europe	-1404
..	-1405
get	-1406
▁context	-1407
▁zu	-1408
▁cho	-1409
▁fre	-1410
▁still	-1411
▁challenges	-1412
ica	-1413
▁exact	-1414
▁outc	-1415
▁appears	-1416
reh	-1417
ado	-1418
ato	-1419
ji	-1420
▁da	-1421
iness	-1422
▁means	-1423
▁super	-1424
up	-1425
omething	-1426
▁bi	-1427
▁het	-1428
▁path	-1429
▁als	-1430
▁happ	-1431
the	-1432
▁manage	-1433
▁name	-1434
▁compreh	-1435
▁impro	-1436
▁directly	-1437
ingu	-1438
▁respons	-1439
way	-1440
▁large	-1441
iones	-1442
▁term	-1443
▁affect	-1444
▁something	-1445
▁result	-1446
▁deb	-1447
▁before	-1448
▁ein	-1449
ste	-1450
▁bus	-1451
▁theore	-1452
ience	-1453
▁local	-1454
▁ret	-1455
▁practic	-1456
▁liter	-1457
▁child	-1458
▁tax	-1459
ctive	-1460
cer	-1461
▁bal	-1462
▁benef	-1463
agn	-1464
less	-1465
▁Die	-1466
lying	-1467
action	-1468
▁similar	-1469
▁groups	-1470
▁policy	-1471
▁pi	-1472
▁structures	-1473
▁reflects	-1474
▁ability	-1475
ug	-1476
lam	-1477
▁por	-1478
tiven	-1479
▁den	-1480
▁explain	-1481
▁net	-1482
bre	-1483
urn	-1484
ification	-1485
ki	-1486
▁doc	-1487
▁200	-1488
yc	-1489
ership	-1490
ando	-1491
▁von	-1492
rative	-1493
▁treatment	-1494
).	-1495
man	-1496
▁men	-1497
▁levels	-1498
że	-1499
▁wy	-1500
▁ps	-1501
▁comprehensive	-1502
port	-1503
wer	-1504
equ	-1505
ator	-1506
▁ear	-1507
▁inv	-1508
▁performance	-1509
▁sing	-1510
▁adapt	-1511
▁consum	-1512
▁separ	-1513
▁species	-1514
tiveness	-1515
ischen	-1516
▁off	-1517
▁hab	-1518
thers	-1519
▁relationships	-1520
▁experien	-1521
▁Al	-1522
ía	-1523
ously	-1524
ict	-1525
▁Af	-1526
▁much	-1527
▁educ	-1528
edi	-1529
▁total	-1530
."	-1531
ilos	-1532
▁8	-1533
isions	-1534
▁dynam	-1535
tig	-1536
lood	-1537
▁vi	-1538
▁substan	-1539
▁een	-1540
ental	-1541
▁types	-1542
▁son	-1543
▁working	-1544
cia	-1545
br	-1546
▁scienti	-1547
▁international	-1548
izing	-1549
▁post	-1550
▁consist	-1551
▁strategic	-1552
▁fig	-1553
▁techni	-1554
▁meaning	-1555
ativ	-1556
▁pur	-1557
▁avail	-1558
▁mor	-1559
▁describ	-1560
term	-1561
▁abs	-1562
▁crucial	-1563
▁7	-1564
lob	-1565
usion	-1566
▁group	-1567
ada	-1568
▁region	-1569
▁word	-1570
▁involve	-1571
▁authority	-1572
itions	-1573
abor	-1574
▁number	-1575
ematical	-1576
▁distinct	-1577
ür	-1578
▁capac	-1579
▁itself	-1580
▁soci	-1581
▁psych	-1582
ength	-1583
▁finan	-1584
▁physical	-1585
▁practices	-1586
▁must	-1587
omp	-1588
ems	-1589
▁history	-1590
ends	-1591
azione	-1592
▁Sp	-1593
ilosoph	-1594
▁relative	-1595
▁areas	-1596
▁characteristic	-1597
cent	-1598
▁gre	-1599
ische	-1600
▁optim	-1601
▁right	-1602
ribution	-1603
▁Pro	-1604
▁qui	-1605
ables	-1606
▁fl	-1607
▁play	-1608
▁territ	-1609
▁then	-1610
ival	-1611
▁conflic	-1612
▁En	-1613
▁language	-1614
▁profess	-1615
ief	-1616
▁pod	-1617
▁się	-1618
▁individuals	-1619
▁pass	-1620
▁refer	-1621
pite	-1622
▁od	-1623
▁theory	-1624
▁offic	-1625
▁precise	-1626
▁area	-1627
▁growth	-1628
▁Qu	-1629
▁mill	-1630
▁effectiveness	-1631
ano	-1632
tial	-1633
▁primary	-1634
▁situation	-1635
aries	-1636
▁case	-1637
▁difficult	-1638
ling	-1639
anced	-1640
porary	-1641
▁dri	-1642
▁rights	-1643
▁requires	-1644
▁American	-1645
ering	-1646
▁principles	-1647
▁production	-1648
▁simult	-1649
▁concept	-1650
▁original	-1651
ension	-1652
ka	-1653
soci	-1654
▁primarily	-1655
▁shift	-1656
▁dell	-1657
une	-1658
▁nie	-1659
wh	-1660
▁hy	-1661
▁philosoph	-1662
▁writ	-1663
▁advant	-1664
▁contem	-1665
yl	-1666
cep	-1667
ird	-1668
▁pour	-1669
▁risk	-1670
▁toward	-1671
▁operations	-1672
po	-1673
olic	-1674
▁three	-1675
▁interpret	-1676
▁Sh	-1677
▁business	-1678
▁effects	-1679
att	-1680
ken	-1681
▁makes	-1682
▁type	-1683
▁others	-1684
▁countries	-1685
▁jak	-1686
▁elements	-1687
ku	-1688
▁independ	-1689
▁regarding	-1690
▁mathematical	-1691
▁body	-1692
▁outcomes	-1693
iency	-1694
▁popul	-1695
▁temper	-1696
ches	-1697
▁assess	-1698
ists	-1699
▁div	-1700
ended	-1701
▁called	-1702
▁buil	-1703
ér	-1704
asc	-1705
ura	-1706
▁cases	-1707
▁difference	-1708
▁Be	-1709
rial	-1710
▁regions	-1711
ges	-1712
pri	-1713
▁simultane	-1714
aces	-1715
▁anti	-1716
oms	-1717
▁employ	-1718
ission	-1719
ults	-1720
▁corre	-1721
▁environmental	-1722
▁urb	-1723
▁view	-1724
ock	-1725
▁rates	-1726
▁They	-1727
eti	-1728
▁experience	-1729
▁Ad	-1730
▁organiz	-1731
▁fail	-1732
ler	-1733
▁pressure	-1734
ule	-1735
▁way	-1736
▁accur	-1737
mo	-1738
▁stuff	-1739
▁gene	-1740
▁higher	-1741
ma	-1742
▁commer	-1743
▁normal	-1744
zen	-1745
ibility	-1746
▁central	-1747
▁century	-1748
ili	-1749
▁states	-1750
ię	-1751
▁medical	-1752
▁decision	-1753
▁point	-1754
▁dans	-1755
unt	-1756
▁pati	-1757
▁studi	-1758
▁coun	-1759
ivers	-1760
▁glob	-1761
exts	-1762
▁network	-1763
tics	-1764
▁reason	-1765
▁wa	-1766
ioni	-1767
ditional	-1768
▁ré	-1769
▁single	-1770
▁express	-1771
▁document	-1772
▁general	-1773
▁ther	-1774
▁field	-1775
▁arg	-1776
▁developed	-1777
▁every	-1778
▁dise	-1779
▁food	-1780
ections	-1781
onom	-1782
▁rece	-1783
ographic	-1784
oss	-1785
ways	-1786
asing	-1787
ert	-1788
sp	-1789
▁strong	-1790
▁someone	-1791
▁actual	-1792
,"	-1793
▁pu	-1794
▁calcul	-1795
▁personal	-1796
▁effectively	-1797
▁plus	-1798
▁transition	-1799
▁clear	-1800
▁ce	-1801
ances	-1802
▁colon	-1803
▁doesn	-1804
▁emerg	-1805
eren	-1806
▁blood	-1807
▁We	-1808
▁definitive	-1809
NA	-1810
onse	-1811
▁mass	-1812
▁considered	-1813
▁requirements	-1814
▁9	-1815
orts	-1816
ores	-1817
▁saf	-1818
ified	-1819
phas	-1820
▁land	-1821
ungen	-1822
▁integr	-1823
▁product	-1824
▁generally	-1825
▁given	-1826
▁successful	-1827
lex	-1828
ania	-1829
hib	-1830
leg	-1831
▁Reg	-1832
▁trade	-1833
tr	-1834
▁anim	-1835
▁problems	-1836
-1	-1837
▁depends	-1838
ente	-1839
▁syn	-1840
ring	-1841
▁log	-1842
▁women	-1843
0,	-1844
▁good	-1845
owe	-1846
▁para	-1847
cl	-1848
▁dim	-1849
▁ulti	-1850
▁X	-1851
▁vary	-1852
▁resist	-1853
▁applications	-1854
aging	-1855
▁espec	-1856
▁quite	-1857
▁despite	-1858
▁ist	-1859
▁contr	-1860
irit	-1861
▁decl	-1862
▁among	-1863
▁strategies	-1864
▁associ	-1865
▁ultim	-1866
irm	-1867
▁rul	-1868
▁family	-1869
0.	-1870
▁nav	-1871
▁national	-1872
idad	-1873
amb	-1874
▁tar	-1875
▁circum	-1876
▁old	-1877
▁progress	-1878
▁second	-1879
▁achieve	-1880
wa	-1881
volution	-1882
elle	-1883
▁emphas	-1884
▁line	-1885
ło	-1886
▁divers	-1887
ja	-1888
based	-1889
▁ways	-1890
▁compos	-1891
▁provides	-1892
ones	-1893
abilities	-1894
enge	-1895
▁util	-1896
▁along	-1897
▁brain	-1898
▁serve	-1899
▁Se	-1900
▁identif	-1901
▁essentially	-1902
oid	-1903
▁prevent	-1904
valu	-1905
actions	-1906
▁involved	-1907
▁functions	-1908
▁ev	-1909
put	-1910
▁domin	-1911
▁objec	-1912
stances	-1913
:**	-1914
ructure	-1915
▁infrast	-1916
▁down	-1917
icht	-1918
▁offer	-1919
▁becomes	-1920
lish	-1921
▁Con	-1922
▁limited	-1923
▁status	-1924
▁available	-1925
▁value	-1926
▁dam	-1927
pid	-1928
ruction	-1929
▁issues	-1930
▁Hey	-1931
▁flow	-1932
ication	-1933
▁je	-1934
▁appear	-1935
▁mechanism	-1936
▁jud	-1937
▁initial	-1938
▁Your	-1939
▁adop	-1940
▁como	-1941
▁nar	-1942
▁movement	-1943
▁forces	-1944
▁contain	-1945
▁strategy	-1946
▁Par	-1947
▁dur	-1948
▁community	-1949
▁allows	-1950
▁text	-1951
ison	-1952
ły	-1953
▁lear	-1954
lection	-1955
lev	-1956
▁management	-1957
▁proced	-1958
af	-1959
▁reach	-1960
ov	-1961
▁lies	-1962
▁dev	-1963
▁pow	-1964
ready	-1965
▁reli	-1966
▁War	-1967
▁princip	-1968
ivil	-1969
▁simultaneously	-1970
▁competi	-1971
▁program	-1972
▁represented	-1973
ror	-1974
ée	-1975
▁priv	-1976
▁urban	-1977
▁already	-1978
nen	-1979
▁financial	-1980
ederal	-1981
▁challenge	-1982
▁dig	-1983
zi	-1984
▁vir	-1985
▁record	-1986
▁clim	-1987
▁fundamentally	-1988
▁entirely	-1989
▁read	-1990
ami	-1991
▁particip	-1992
ek	-1993
▁following	-1994
▁Yes	-1995
itect	-1996
▁event	-1997
of	-1998
▁kon	-1999
▁European	-2000
▁differences	-2001
▁Eng	-2002
▁surv	-2003
▁concent	-2004
▁tre	-2005
▁involving	-2006
▁cla	-2007
ás	-2008
▁mit	-2009
ably	-2010
▁symb	-2011
▁prev	-2012
▁frequ	-2013
▁air	-2014
aling	-2015
onder	-2016
▁very	-2017
▁sources	-2018
oman	-2019
▁neg	-2020
▁conven	-2021
▁happen	-2022
▁structural	-2023
▁sich	-2024
▁having	-2025
▁coord	-2026
▁memory	-2027
▁regular	-2028
▁response	-2029
▁cause	-2030
▁traditions	-2031
▁circumstances	-2032
sk	-2033
ture	-2034
day	-2035
▁needs	-2036
▁overall	-2037
▁technical	-2038
met	-2039
▁implic	-2040
avor	-2041
▁199	-2042
▁practice	-2043
▁schol	-2044
▁Afric	-2045
ouse	-2046
▁Sch	-2047
▁populations	-2048
▁techniques	-2049
▁197	-2050
▁ve	-2051
▁camp	-2052
▁since	-2053
▁influenced	-2054
▁specialized	-2055
ali	-2056
▁scho	-2057
▁bound	-2058
▁numer	-2059
ived	-2060
ides	-2061
▁designed	-2062
▁infrastructure	-2063
▁age	-2064
▁tend	-2065
▁altern	-2066
cient	-2067
▁oppos	-2068
▁17	-2069
itor	-2070
co	-2071
▁eth	-2072
lation	-2073
ck	-2074
▁principle	-2075
▁theoretical	-2076
▁contemporary	-2077
▁light	-2078
▁underlying	-2079
▁claim	-2080
ijn	-2081
ective	-2082
▁mom	-2083
▁regulatory	-2084
nov	-2085
▁perspec	-2086
▁prov	-2087
▁spirit	-2088
▁provided	-2089
▁You	-2090
▁critical	-2091
▁things	-2092
▁fur	-2093
ledge	-2094
▁simple	-2095
▁details	-2096
▁efficiency	-2097
ects	-2098
▁unique	-2099
▁è	-2100
▁Sou	-2101
urity	-2102
▁arti	-2103
▁exce	-2104
▁look	-2105
▁198	-2106
▁she	-2107
▁test	-2108
igen	-2109
▁eine	-2110
▁space	-2111
ton	-2112
▁sens	-2113
▁vot	-2114
▁considerations	-2115
thern	-2116
▁compon	-2117
▁architect	-2118
▁known	-2119
▁distribution	-2120
tó	-2121
▁resources	-2122
▁auf	-2123
▁viol	-2124
▁complexity	-2125
éc	-2126
▁15	-2127
ait	-2128
ank	-2129
side	-2130
▁sex	-2131
tian	-2132
▁scientific	-2133
▁throughout	-2134
▁emo	-2135
▁properties	-2136
emic	-2137
▁property	-2138
▁ultimately	-2139
ints	-2140
other	-2141
▁results	-2142
▁administrative	-2143
▁institutional	-2144
▁inher	-2145
▁versus	-2146
▁cyc	-2147
acts	-2148
ident	-2149
▁radi	-2150
▁connection	-2151
▁cr	-2152
zione	-2153
▁prze	-2154
▁surf	-2155
▁analy	-2156
ios	-2157
▁emb	-2158
▁place	-2159
▁Est	-2160
▁global	-2161
▁bar	-2162
▁plann	-2163
ende	-2164
▁plan	-2165
▁increased	-2166
▁Can	-2167
zie	-2168
▁stru	-2169
▁sust	-2170
▁mag	-2171
▁sam	-2172
ino	-2173
▁evalu	-2174
▁tog	-2175
▁fore	-2176
▁substantial	-2177
▁teach	-2178
raw	-2179
▁death	-2180
▁extre	-2181
▁univers	-2182
▁contexts	-2183
uf	-2184
▁dat	-2185
▁któ	-2186
source	-2187
▁expans	-2188
▁low	-2189
▁commercial	-2190
▁prom	-2191
▁children	-2192
▁transformation	-2193
▁cells	-2194
ico	-2195
ope	-2196
▁together	-2197
▁now	-2198
▁forms	-2199
fficient	-2200
ritis	-2201
▁balance	-2202
▁regional	-2203
▁characteristics	-2204
sequ	-2205
▁sou	-2206
▁contra	-2207
▁frameworks	-2208
▁prior	-2209
▁determine	-2210
▁artis	-2211
▁coll	-2212
▁If	-2213
▁196	-2214
tives	-2215
▁prz	-2216
▁prob	-2217
ators	-2218
▁lack	-2219
▁thing	-2220
▁das	-2221
▁earli	-2222
▁knowledge	-2223
▁additional	-2224
▁With	-2225
ité	-2226
▁existing	-2227
tica	-2228
erve	-2229
="	-2230
▁że	-2231
▁dest	-2232
▁sustain	-2233
</	-2234
▁202	-2235
▁To	-2236
ogni	-2237
iment	-2238
">	-2239
ius	-2240
▁US	-2241
▁formal	-2242
app	-2243
ades	-2244
anti	-2245
▁self	-2246
▁prote	-2247
▁culture	-2248
▁disease	-2249
▁subsequ	-2250
▁improve	-2251
ono	-2252
▁gradu	-2253
▁country	-2254
▁categ	-2255
▁immedi	-2256
ervation	-2257
nej	-2258
▁lingu	-2259
▁ancient	-2260
▁innov	-2261
range	-2262
ognitive	-2263
▁increasing	-2264
▁face	-2265
inking	-2266
▁integration	-2267
omb	-2268
▁contrast	-2269
▁$	-2270
▁(1	-2271
anies	-2272
▁ec	-2273
▁capital	-2274
▁enh	-2275
▁dynamics	-2276
▁constitutional	-2277
ycz	-2278
▁serves	-2279
▁periods	-2280
▁evolutionary	-2281
ender	-2282
ode	-2283
rench	-2284
▁professional	-2285
▁ró	-2286
▁civil	-2287
▁prefer	-2288
▁numbers	-2289
▁mis	-2290
▁navig	-2291
▁By	-2292
▁fully	-2293
ità	-2294
▁doct	-2295
ret	-2296
▁ten	-2297
atures	-2298
▁incor	-2299
▁interven	-2300
▁really	-2301
▁target	-2302
▁pa	-2303
▁policies	-2304
men	-2305
rab	-2306
▁includ	-2307
▁clin	-2308
dh	-2309
orn	-2310
pro	-2311
▁sz	-2312
ux	-2313
▁capabilities	-2314
▁Germ	-2315
▁isn	-2316
▁entre	-2317
▁essential	-2318
▁rev	-2319
ibus	-2320
elt	-2321
pire	-2322
▁include	-2323
▁million	-2324
▁led	-2325
▁implications	-2326
ción	-2327
▁active	-2328
▁want	-2329
▁wer	-2330
▁transport	-2331
ana	-2332
▁fu	-2333
▁lower	-2334
ER	-2335
ła	-2336
▁cu	-2337
▁tou	-2338
ox	-2339
▁wr	-2340
▁star	-2341
▁final	-2342
izes	-2343
▁systematic	-2344
>.	-2345
verage	-2346
▁distinction	-2347
▁10	-2348
elves	-2349
ply	-2350
▁Il	-2351
itt	-2352
▁ens	-2353
▁flu	-2354
▁commit	-2355
▁trying	-2356
lec	-2357
The	-2358
▁effect	-2359
icz	-2360
▁cust	-2361
▁rapid	-2362
iques	-2363
▁true	-2364
▁complic	-2365
▁challenging	-2366
ots	-2367
▁beg	-2368
▁deg	-2369
▁rate	-2370
▁factor	-2371
sts	-2372
esta	-2373
ratic	-2374
▁II	-2375
▁della	-2376
nym	-2377
▁related	-2378
tre	-2379
▁TH	-2380
utes	-2381
▁further	-2382
omatic	-2383
▁benefits	-2384
aj	-2385
▁study	-2386
▁cognitive	-2387
▁capacity	-2388
▁strength	-2389
▁expansion	-2390
▁jest	-2391
▁open	-2392
▁studies	-2393
va	-2394
▁sil	-2395
▁Some	-2396
▁combined	-2397
▁shap	-2398
▁valid	-2399
▁demonstrates	-2400
...	-2401
,000	-2402
uro	-2403
▁New	-2404
▁company	-2405
▁diverse	-2406
▁deep	-2407
▁example	-2408
elij	-2409
▁más	-2410
aster	-2411
▁approxim	-2412
▁dram	-2413
▁legis	-2414
▁versch	-2415
▁federal	-2416
▁16	-2417
▁Am	-2418
ording	-2419
▁condition	-2420
▁comparative	-2421
gment	-2422
▁basic	-2423
ole	-2424
▁tri	-2425
▁stra	-2426
▁order	-2427
▁genetic	-2428
▁spiritual	-2429
osed	-2430
ortun	-2431
lim	-2432
▁times	-2433
▁resistance	-2434
by	-2435
▁team	-2436
▁appropri	-2437
▁foundation	-2438
wi	-2439
▁think	-2440
▁amb	-2441
▁models	-2442
era	-2443
erc	-2444
ystem	-2445
ids	-2446
▁environments	-2447
▁+	-2448
▁sum	-2449
▁short	-2450
▁decisions	-2451
▁occurs	-2452
▁feel	-2453
über	-2454
▁cle	-2455
▁ſ	-2456
yle	-2457
▁instit	-2458
▁values	-2459
▁providing	-2460
▁fr	-2461
▁Mar	-2462
▁nam	-2463
▁scen	-2464
▁force	-2465
▁media	-2466
▁safety	-2467
reg	-2468
orth	-2469
ritish	-2470
▁sympt	-2471
▁interest	-2472
▁sound	-2473
▁thems	-2474
▁conflict	-2475
▁leading	-2476
▁themselves	-2477
ilities	-2478
▁allowing	-2479
▁building	-2480
▁companies	-2481
▁tell	-2482
▁diff	-2483
▁full	-2484
ario	-2485
esis	-2486
▁Ver	-2487
▁protection	-2488
▁limitations	-2489
zą	-2490
cie	-2491
▁für	-2492
▁jed	-2493
estern	-2494
eding	-2495
▁om	-2496
ians	-2497
atives	-2498
▁occurred	-2499
orld	-2500
▁prop	-2501
▁perce	-2502
ero	-2503
▁plant	-2504
olution	-2505
▁internal	-2506
▁Or	-2507
cape	-2508
▁dass	-2509
ify	-2510
uit	-2511
ii	-2512
ny	-2513
light	-2514
ère	-2515
ées	-2516
anie	-2517
oney	-2518
▁artistic	-2519
▁Why	-2520
▁sus	-2521
▁keep	-2522
▁loss	-2523
▁più	-2524
inary	-2525
▁accept	-2526
▁communities	-2527
▁size	-2528
▁expand	-2529
cze	-2530
▁Les	-2531
▁let	-2532
▁security	-2533
ash	-2534
aire	-2535
▁appar	-2536
▁lands	-2537
▁British	-2538
▁ann	-2539
sc	-2540
over	-2541
▁demonstrated	-2542
▁jur	-2543
▁points	-2544
▁persist	-2545
▁harm	-2546
▁earlier	-2547
▁czy	-2548
▁align	-2549
osp	-2550
▁court	-2551
▁manif	-2552
▁chem	-2553
▁Cette	-2554
tor	-2555
ternal	-2556
ensions	-2557
▁Em	-2558
▁sem	-2559
▁constit	-2560
▁restric	-2561
hold	-2562
uddh	-2563
oming	-2564
20	-2565
▁era	-2566
▁quality	-2567
ave	-2568
aciones	-2569
▁extreme	-2570
iem	-2571
let	-2572
▁ste	-2573
▁required	-2574
▁subsequent	-2575
force	-2576
▁completely	-2577
like	-2578
▁find	-2579
▁pas	-2580
▁pain	-2581
▁advantages	-2582
▁introdu	-2583
ream	-2584
▁acad	-2585
▁moment	-2586
▁take	-2587
enn	-2588
▁port	-2589
▁French	-2590
▁developing	-2591
ultural	-2592
ść	-2593
war	-2594
▁controll	-2595
▁identity	-2596
atch	-2597
▁alc	-2598
ending	-2599
▁colonial	-2600
▁rule	-2601
▁labor	-2602
▁materials	-2603
▁tak	-2604
▁industrial	-2605
▁China	-2606
▁continued	-2607
pping	-2608
▁center	-2609
▁another	-2610
▁confirm	-2611
do	-2612
dy	-2613
▁maxim	-2614
▁jus	-2615
▁incorpor	-2616
▁presence	-2617
ially	-2618
▁Di	-2619
▁gain	-2620
eration	-2621
▁asp	-2622
ember	-2623
▁heav	-2624
▁severe	-2625
xt	-2626
ön	-2627
▁clinical	-2628
▁book	-2629
▁events	-2630
én	-2631
▁minim	-2632
▁larger	-2633
▁arrange	-2634
▁ont	-2635
▁recognition	-2636
ume	-2637
▁top	-2638
▁El	-2639
▁Islam	-2640
endo	-2641
▁suggest	-2642
▁arm	-2643
▁dipl	-2644
▁United	-2645
▁greater	-2646
▁Su	-2647
▁Ph	-2648
iche	-2649
▁laws	-2650
▁statis	-2651
▁wonder	-2652
▁crim	-2653
▁invest	-2654
▁industry	-2655
▁governance	-2656
aps	-2657
▁origin	-2658
▁necessary	-2659
▁avec	-2660
apan	-2661
▁Without	-2662
▁account	-2663
▁members	-2664
▁reduced	-2665
ży	-2666
▁separate	-2667
ector	-2668
▁film	-2669
▁instru	-2670
acji	-2671
cies	-2672
▁remo	-2673
▁experiences	-2674
▁core	-2675
▁formation	-2676
▁Russ	-2677
▁color	-2678
iring	-2679
▁conver	-2680
▁art	-2681
▁sal	-2682
▁über	-2683
▁engage	-2684
▁activities	-2685
▁application	-2686
▁activity	-2687
▁planning	-2688
▁eas	-2689
▁careful	-2690
▁digital	-2691
ula	-2692
duct	-2693
▁simply	-2694
▁consequ	-2695
AT	-2696
ai	-2697
.</	-2698
▁Er	-2699
amet	-2700
iver	-2701
arian	-2702
ither	-2703
▁music	-2704
▁technology	-2705
▁implementation	-2706
▁zijn	-2707
▁Regarding	-2708
nego	-2709
poses	-2710
▁reve	-2711
▁soph	-2712
▁roz	-2713
▁geomet	-2714
▁belie	-2715
▁evolved	-2716
▁exactly	-2717
▁concerns	-2718
▁Chin	-2719
▁shows	-2720
▁smaller	-2721
lichen	-2722
▁surface	-2723
▁year	-2724
▁leadership	-2725
▁temperature	-2726
▁um	-2727
▁wie	-2728
▁official	-2729
▁previous	-2730
▁constrain	-2731
▁processing	-2732
▁dep	-2733
▁efforts	-2734
▁emotional	-2735
▁technological	-2736
anish	-2737
▁attem	-2738
▁avoid	-2739
▁attack	-2740
inc	-2741
▁194	-2742
▁money	-2743
▁philosophical	-2744
ming	-2745
diction	-2746
▁demand	-2747
▁mach	-2748
▁Buddh	-2749
▁nu	-2750
▁pure	-2751
▁campa	-2752
▁patients	-2753
tie	-2754
▁dies	-2755
▁sequ	-2756
▁break	-2757
▁society	-2758
▁guid	-2759
▁issue	-2760
ido	-2761
och	-2762
▁popular	-2763
nic	-2764
▁valu	-2765
▁approximately	-2766
▁Her	-2767
▁pun	-2768
▁transl	-2769
▁stability	-2770
▁combination	-2771
▁base	-2772
▁last	-2773
▁service	-2774
▁began	-2775
▁imper	-2776
▁content	-2777
1,	-2778
use	-2779
▁agric	-2780
▁services	-2781
atur	-2782
▁produce	-2783
lig	-2784
rams	-2785
▁cum	-2786
▁estim	-2787
▁favor	-2788
▁action	-2789
▁193	-2790
▁Act	-2791
enomen	-2792
▁diagn	-2793
▁coordin	-2794
▁element	-2795
ben	-2796
tif	-2797
ored	-2798
▁audi	-2799
▁recomm	-2800
▁bes	-2801
▁nel	-2802
▁say	-2803
▁partn	-2804
ony	-2805
▁compet	-2806
▁benefit	-2807
▁education	-2808
▁marri	-2809
▁increase	-2810
▁heart	-2811
▁hyp	-2812
▁lay	-2813
▁free	-2814
▁damage	-2815
▁communication	-2816
uter	-2817
▁transm	-2818
▁campaign	-2819
▁tempor	-2820
▁associated	-2821
ises	-2822
ON	-2823
pects	-2824
▁longer	-2825
▁sophistic	-2826
▁rig	-2827
▁range	-2828
▁`	-2829
part	-2830
inter	-2831
place	-2832
▁relatively	-2833
ES	-2834
▁ep	-2835
▁perm	-2836
▁institutions	-2837
▁weight	-2838
▁DNA	-2839
▁Could	-2840
▁Japan	-2841
▁reform	-2842
▁strugg	-2843
ills	-2844
▁report	-2845
▁English	-2846
▁project	-2847
▁depending	-2848
▁choice	-2849
▁interactions	-2850
ede	-2851
mes	-2852
▁elim	-2853
ocratic	-2854
ät	-2855
fect	-2856
time	-2857
▁purposes	-2858
▁psychological	-2859
50	-2860
▁Ge	-2861
▁alg	-2862
▁mic	-2863
▁movements	-2864
▁establishing	-2865
cepts	-2866
▁regard	-2867
▁positive	-2868
onal	-2869
iving	-2870
▁States	-2871
idd	-2872
▁delle	-2873
▁opportun	-2874
▁suggesting	-2875
ét	-2876
ną	-2877
ake	-2878
ko	-2879
ney	-2880
▁tw	-2881
tered	-2882
▁comput	-2883
tio	-2884
ras	-2885
▁dom	-2886
▁mig	-2887
▁away	-2888
▁fall	-2889
ige	-2890
ieg	-2891
▁distingu	-2892
▁measures	-2893
▁appropriate	-2894
isch	-2895
▁Aust	-2896
▁preced	-2897
▁positions	-2898
▁standards	-2899
▁linguistic	-2900
▁sw	-2901
2,	-2902
▁Pl	-2903
▁mix	-2904
▁four	-2905
▁voor	-2906
▁Chinese	-2907
▁negative	-2908
▁extensive	-2909
▁Ab	-2910
▁pred	-2911
▁climate	-2912
▁possible	-2913
nt	-2914
ują	-2915
▁allowed	-2916
▁efficient	-2917
▁necessarily	-2918
apy	-2919
▁vul	-2920
itation	-2921
▁belief	-2922
▁dramatic	-2923
ditionally	-2924
▁nut	-2925
▁projec	-2926
▁variables	-2927
cri	-2928
alle	-2929
▁seem	-2930
▁domes	-2931
▁medic	-2932
oint	-2933
▁properly	-2934
▁ze	-2935
▁THE	-2936
aring	-2937
▁perspective	-2938
▁moral	-2939
cha	-2940
inf	-2941
▁Comm	-2942
▁source	-2943
▁alternative	-2944
0%	-2945
bo	-2946
aly	-2947
▁nuc	-2948
**:	-2949
▁poly	-2950
▁figure	-2951
▁gl	-2952
▁durch	-2953
▁nicht	-2954
▁rich	-2955
asons	-2956
order	-2957
overy	-2958
▁Additionally	-2959
▁mut	-2960
▁until	-2961
▁symptoms	-2962
▁liber	-2963
▁return	-2964
diz	-2965
▁home	-2966
▁sexual	-2967
▁concepts	-2968
▁[	-2969
aut	-2970
▁explic	-2971
line	-2972
used	-2973
▁best	-2974
▁cette	-2975
▁operate	-2976
▁tension	-2977
▁external	-2978
▁educational	-2979
rug	-2980
▁tas	-2981
▁flex	-2982
ita	-2983
ancy	-2984
▁behind	-2985
arth	-2986
liche	-2987
uries	-2988
▁sist	-2989
▁programs	-2990
aged	-2991
▁mil	-2992
▁pen	-2993
▁operates	-2994
dro	-2995
esto	-2996
certain	-2997
cle	-2998
▁róż	-2999
▁comprom	-3000
atie	-3001
▁juris	-3002
▁recon	-3003
▁learning	-3004
▁ord	-3005
▁party	-3006
▁roles	-3007
▁contrib	-3008
▁tour	-3009
ologies	-3010
ude	-3011
▁recognized	-3012
▁immediate	-3013
▁situations	-3014
pe	-3015
iam	-3016
astic	-3017
▁przy	-3018
izz	-3019
kow	-3020
nac	-3021
▁ox	-3022
ados	-3023
▁correct	-3024
▁tal	-3025
▁hard	-3026
▁expect	-3027
▁landscape	-3028
▁operational	-3029
ungs	-3030
▁notable	-3031
aux	-3032
▁agree	-3033
▁threat	-3034
▁Spanish	-3035
▁actions	-3036
▁figures	-3037
ged	-3038
▁run	-3039
omple	-3040
▁helps	-3041
▁share	-3042
▁seg	-3043
▁grand	-3044
▁survival	-3045
▁uncertain	-3046
▁At	-3047
itiz	-3048
oli	-3049
ush	-3050
ensity	-3051
ficial	-3052
▁constant	-3053
▁organization	-3054
▁colle	-3055
▁ang	-3056
▁visual	-3057
▁ét	-3058
aria	-3059
roll	-3060
▁fem	-3061
▁inves	-3062
itim	-3063
▁late	-3064
▁diagnos	-3065
▁thought	-3066
pper	-3067
▁rules	-3068
tention	-3069
5,	-3070
ani	-3071
arb	-3072
▁Pr	-3073
ives	-3074
▁ind	-3075
▁travel	-3076
▁×	-3077
▁thinking	-3078
▁comes	-3079
IN	-3080
play	-3081
urally	-3082
▁alone	-3083
▁zw	-3084
care	-3085
ised	-3086
▁critic	-3087
▁served	-3088
▁aspects	-3089
▁phenomen	-3090
▁cz	-3091
▁Sov	-3092
▁lat	-3093
cious	-3094
▁domestic	-3095
--	-3096
utic	-3097
▁described	-3098
▁Fran	-3099
▁cross	-3100
▁fer	-3101
going	-3102
▁magn	-3103
▁distinguish	-3104
ead	-3105
utt	-3106
▁cat	-3107
making	-3108
▁South	-3109
▁divid	-3110
▁scale	-3111
▁counter	-3112
▁confusion	-3113
aced	-3114
▁costs	-3115
▁contributed	-3116
▁classification	-3117
amm	-3118
▁young	-3119
iber	-3120
swer	-3121
elling	-3122
▁units	-3123
▁Fr	-3124
orial	-3125
▁illu	-3126
▁sophisticated	-3127
▁ones	-3128
▁famil	-3129
▁engine	-3130
ths	-3131
▁pub	-3132
times	-3133
ół	-3134
oll	-3135
▁speed	-3136
▁vulner	-3137
▁initially	-3138
▁Gu	-3139
▁academic	-3140
ops	-3141
▁vel	-3142
▁Both	-3143
▁comme	-3144
▁disru	-3145
▁predict	-3146
acc	-3147
▁sed	-3148
▁Cour	-3149
▁slow	-3150
▁compound	-3151
▁continue	-3152
▁construction	-3153
▁significance	-3154
rad	-3155
▁networks	-3156
▁Ma	-3157
▁weak	-3158
▁close	-3159
urg	-3160
osph	-3161
▁wasn	-3162
▁finding	-3163
▁expression	-3164
▁importance	-3165
yt	-3166
▁root	-3167
apeutic	-3168
▁needed	-3169
▁Western	-3170
▁rational	-3171
▁components	-3172
▁consistent	-3173
▁characterized	-3174
▁1.	-3175
▁cos	-3176
▁appe	-3177
▁cities	-3178
▁interests	-3179
▁mog	-3180
▁hier	-3181
▁spread	-3182
▁timing	-3183
ecz	-3184
orum	-3185
▁saw	-3186
dom	-3187
ening	-3188
▁dual	-3189
▁Cong	-3190
▁exec	-3191
▁Roman	-3192
log	-3193
tivity	-3194
inating	-3195
3,	-3196
ronic	-3197
▁came	-3198
▁school	-3199
▁products	-3200
▁superior	-3201
ristian	-3202
▁training	-3203
osure	-3204
▁instead	-3205
▁musical	-3206
EN	-3207
ains	-3208
▁seen	-3209
▁No	-3210
▁valuable	-3211
▁advantage	-3212
▁requiring	-3213
▁therapeutic	-3214
ida	-3215
lied	-3216
▁bin	-3217
▁next	-3218
▁compare	-3219
▁contribute	-3220
ég	-3221
ara	-3222
ście	-3223
bility	-3224
▁parts	-3225
▁career	-3226
▁remark	-3227
▁measurement	-3228
oe	-3229
▁students	-3230
▁fa	-3231
▁pay	-3232
▁grav	-3233
fication	-3234
▁motiv	-3235
▁accoun	-3236
▁connections	-3237
▁reprodu	-3238
off	-3239
▁mess	-3240
▁concentr	-3241
▁consequences	-3242
4,	-3243
▁Tr	-3244
▁big	-3245
▁insight	-3246
▁behavioral	-3247
bs	-3248
ery	-3249
▁ir	-3250
▁tac	-3251
▁aren	-3252
▁red	-3253
▁squ	-3254
▁shape	-3255
▁custom	-3256
▁diss	-3257
▁jako	-3258
▁today	-3259
▁either	-3260
▁ground	-3261
▁percent	-3262
▁12	-3263
gest	-3264
▁nor	-3265
ala	-3266
▁aus	-3267
▁bur	-3268
▁cas	-3269
rel	-3270
▁Ex	-3271
▁literary	-3272
▁preg	-3273
▁private	-3274
▁literature	-3275
▁interpretation	-3276
bi	-3277
ellen	-3278
etary	-3279
▁absol	-3280
▁story	-3281
resp	-3282
▁alcoh	-3283
▁price	-3284
▁investig	-3285
ję	-3286
azioni	-3287
▁risks	-3288
▁tools	-3289
▁elev	-3290
▁poor	-3291
▁roku	-3292
▁paramet	-3293
▁indicates	-3294
▁revolution	-3295
▁definitively	-3296
▁dr	-3297
ered	-3298
▁emp	-3299
▁kön	-3300
▁unc	-3301
▁fish	-3302
▁Their	-3303
▁legitim	-3304
▁acid	-3305
▁pressures	-3306
▁foreign	-3307
▁carb	-3308
alt	-3309
▁past	-3310
▁assum	-3311
▁highly	-3312
▁regardless	-3313
ss	-3314
▁?	-3315
▁kind	-3316
▁sind	-3317
▁animals	-3318
▁responses	-3319
lands	-3320
ności	-3321
riter	-3322
ieties	-3323
▁Diese	-3324
▁consumption	-3325
▁Im	-3326
▁My	-3327
▁day	-3328
▁writing	-3329
icial	-3330
ufact	-3331
▁sobre	-3332
▁procedures	-3333
AN	-3334
vo	-3335
ware	-3336
▁fasc	-3337
▁propor	-3338
▁Whether	-3339
▁reality	-3340
▁Ne	-3341
▁hold	-3342
▁Since	-3343
▁stems	-3344
▁propos	-3345
▁setting	-3346
▁sometimes	-3347
self	-3348
▁molec	-3349
▁composition	-3350
ote	-3351
▁becoming	-3352
▁mu	-3353
▁Joh	-3354
▁meet	-3355
▁extended	-3356
▁pathways	-3357
▁healthcare	-3358
ua	-3359
ól	-3360
▁Je	-3361
hood	-3362
keit	-3363
iddle	-3364
mi	-3365
eden	-3366
oring	-3367
▁German	-3368
▁encoun	-3369
▁shared	-3370
iting	-3371
▁sett	-3372
▁Soviet	-3373
▁Islamic	-3374
▁influences	-3375
▁#	-3376
rage	-3377
▁protoc	-3378
▁convers	-3379
▁head	-3380
▁optimal	-3381
▁sufficient	-3382
inning	-3383
▁nutri	-3384
▁assessment	-3385
ís	-3386
▁once	-3387
▁African	-3388
▁alongside	-3389
encia	-3390
▁manufact	-3391
",	-3392
▁Cl	-3393
▁ok	-3394
▁Rep	-3395
eline	-3396
▁14	-3397
▁Te	-3398
▁argu	-3399
▁clar	-3400
▁resid	-3401
▁presents	-3402
oro	-3403
▁near	-3404
▁accurate	-3405
▁constraints	-3406
▁representation	-3407
ahr	-3408
bbe	-3409
▁too	-3410
▁mention	-3411
▁serious	-3412
▁manifest	-3413
▁maintained	-3414
▁independent	-3415
▁rein	-3416
▁advance	-3417
▁touches	-3418
▁biological	-3419
▁variations	-3420
yal	-3421
ematic	-3422
▁facilit	-3423
ella	-3424
▁There	-3425
OR	-3426
▁ś	-3427
rine	-3428
tique	-3429
▁drug	-3430
▁legisl	-3431
ca	-3432
da	-3433
nal	-3434
▁qual	-3435
▁organizations	-3436
hy	-3437
▁rapp	-3438
▁step	-3439
▁reduce	-3440
▁languages	-3441
onic	-3442
▁bad	-3443
▁mer	-3444
iento	-3445
▁stress	-3446
enza	-3447
ífic	-3448
▁gro	-3449
▁jour	-3450
▁relev	-3451
▁adaptation	-3452
tt	-3453
itable	-3454
▁ongoing	-3455
▁classical	-3456
▁functional	-3457
▁¿	-3458
empl	-3459
▁Gree	-3460
▁sein	-3461
▁wondering	-3462
ków	-3463
▁sl	-3464
▁kil	-3465
▁resource	-3466
▁straight	-3467
II	-3468
lor	-3469
mar	-3470
mic	-3471
▁ou	-3472
▁comparison	-3473
▁dei	-3474
▁sie	-3475
▁Earth	-3476
iological	-3477
▁increases	-3478
geb	-3479
raft	-3480
▁testing	-3481
▁boundaries	-3482
▁aux	-3483
entes	-3484
▁capture	-3485
▁consult	-3486
▁organizational	-3487
ister	-3488
▁door	-3489
▁always	-3490
▁perman	-3491
▁wealth	-3492
▁Per	-3493
lease	-3494
▁wide	-3495
ression	-3496
▁living	-3497
▁independence	-3498
▁lab	-3499
▁hydro	-3500
▁demographic	-3501
▁inj	-3502
chaft	-3503
▁Arab	-3504
▁conserv	-3505
enz	-3506
▁Med	-3507
uine	-3508
▁bei	-3509
ieval	-3510
▁disp	-3511
▁oder	-3512
cal	-3513
▁rac	-3514
▁apparent	-3515
6,	-3516
emb	-3517
ares	-3518
▁stem	-3519
encies	-3520
▁Court	-3521
▁especially	-3522
▁increasingly	-3523
▁successfully	-3524
ład	-3525
▁Mus	-3526
▁Pers	-3527
▁exch	-3528
▁India	-3529
▁trust	-3530
▁patient	-3531
pped	-3532
▁ensure	-3533
▁decline	-3534
▁referring	-3535
▁determining	-3536
uk	-3537
▁są	-3538
aves	-3539
entic	-3540
▁cycle	-3541
▁corpor	-3542
▁politi	-3543
▁chemical	-3544
▁king	-3545
▁attempt	-3546
▁reasons	-3547
▁upon	-3548
▁virus	-3549
▁achieved	-3550
ging	-3551
ites	-3552
▁fix	-3553
ellig	-3554
▁perfect	-3555
▁therapy	-3556
▁wp	-3557
▁far	-3558
▁prepar	-3559
▁presid	-3560
änd	-3561
▁termin	-3562
atter	-3563
▁suff	-3564
▁scope	-3565
ography	-3566
▁>	-3567
▁atm	-3568
▁dont	-3569
▁algor	-3570
▁intel	-3571
▁affects	-3572
▁hierarch	-3573
ull	-3574
▁World	-3575
▁words	-3576
▁determin	-3577
czeg	-3578
iors	-3579
▁leur	-3580
▁scholars	-3581
▁ih	-3582
back	-3583
indu	-3584
▁Col	-3585
▁heat	-3586
owa	-3587
▁ill	-3588
ising	-3589
▁powerful	-3590
▁Eg	-3591
▁fo	-3592
▁aan	-3593
▁plat	-3594
▁equal	-3595
▁seems	-3596
▁causes	-3597
▁growing	-3598
▁interact	-3599
▁narrative	-3600
▁diplomatic	-3601
ils	-3602
arios	-3603
▁conduct	-3604
▁genuine	-3605
▁remained	-3606
amin	-3607
irth	-3608
know	-3609
wick	-3610
▁hal	-3611
▁season	-3612
▁transfer	-3613
▁demonstrate	-3614
▁alcohol	-3615
▁corresp	-3616
▁durante	-3617
▁illustr	-3618
ece	-3619
lij	-3620
nes	-3621
rical	-3622
▁Congress	-3623
▁cellular	-3624
▁numerous	-3625
AL	-3626
ama	-3627
bit	-3628
szy	-3629
odies	-3630
▁tiss	-3631
▁centuries	-3632
xi	-3633
rete	-3634
ster	-3635
▁cardi	-3636
▁applied	-3637
▁impacts	-3638
usive	-3639
ecting	-3640
▁style	-3641
▁tests	-3642
eck	-3643
▁tro	-3644
▁Sec	-3645
▁ing	-3646
▁conv	-3647
▁bacter	-3648
▁decades	-3649
▁Com	-3650
▁Man	-3651
▁ich	-3652
ocation	-3653
▁objects	-3654
▁competitive	-3655
▁job	-3656
▁barri	-3657
▁Christian	-3658
▁naturally	-3659
atom	-3660
▁calc	-3661
▁phot	-3662
▁subs	-3663
▁metab	-3664
▁werden	-3665
▁science	-3666
ott	-3667
▁fat	-3668
▁quick	-3669
oration	-3670
tically	-3671
itch	-3672
▁adj	-3673
▁alle	-3674
▁faced	-3675
▁contract	-3676
▁reliable	-3677
▁fri	-3678
▁Each	-3679
▁claims	-3680
▁confid	-3681
▁criter	-3682
▁aspect	-3683
▁income	-3684
czy	-3685
ours	-3686
▁mere	-3687
▁uses	-3688
▁sense	-3689
▁reflected	-3690
▁AI	-3691
▁decre	-3692
▁courts	-3693
▁intellect	-3694
idge	-3695
▁Greek	-3696
▁freed	-3697
▁przez	-3698
▁moving	-3699
▁13	-3700
oles	-3701
▁Uni	-3702
▁Cons	-3703
▁somewh	-3704
▁predicting	-3705
ówn	-3706
▁rot	-3707
▁chann	-3708
ributed	-3709
▁territorial	-3710
eld	-3711
odes	-3712
▁hun	-3713
▁nom	-3714
ancing	-3715
alement	-3716
rest	-3717
▁cris	-3718
▁side	-3719
▁enter	-3720
▁agricultural	-3721
acht	-3722
▁Esta	-3723
▁bill	-3724
▁respond	-3725
▁behaviors	-3726
8,	-3727
netic	-3728
▁supply	-3729
▁happens	-3730
▁Ha	-3731
▁But	-3732
▁neuro	-3733
▁learn	-3734
▁gender	-3735
▁examination	-3736
hen	-3737
niej	-3738
▁turn	-3739
▁white	-3740
▁isol	-3741
active	-3742
▁house	-3743
▁church	-3744
▁handle	-3745
▁plants	-3746
▁distance	-3747
iej	-3748
▁got	-3749
▁absolute	-3750
▁selection	-3751
rij	-3752
▁agg	-3753
owych	-3754
▁eventually	-3755
▁geographic	-3756
▁mechanical	-3757
▁measurements	-3758
sh	-3759
äch	-3760
ogen	-3761
oking	-3762
▁Based	-3763
▁monitor	-3764
▁investment	-3765
7,	-3766
▁gas	-3767
▁debt	-3768
▁said	-3769
▁occup	-3770
▁promin	-3771
dzy	-3772
uje	-3773
▁rad	-3774
▁John	-3775
▁built	-3776
▁stable	-3777
▁recommend	-3778
odo	-3779
▁wur	-3780
▁deli	-3781
▁unit	-3782
▁Indian	-3783
▁gradual	-3784
eth	-3785
orb	-3786
ards	-3787
▁She	-3788
▁ges	-3789
▁stor	-3790
tische	-3791
▁explicit	-3792
ley	-3793
▁administration	-3794
ią	-3795
ls	-3796
▁micro	-3797
▁synth	-3798
▁therm	-3799
ract	-3800
▁observed	-3801
ria	-3802
atisf	-3803
elijk	-3804
thing	-3805
▁great	-3806
▁quant	-3807
▁powers	-3808
▁recent	-3809
▁getting	-3810
▁changing	-3811
▁features	-3812
▁demonstrating	-3813
▁feed	-3814
▁daily	-3815
las	-3816
▁ey	-3817
▁And	-3818
▁exhib	-3819
▁divine	-3820
▁indicating	-3821
▁average	-3822
▁accuracy	-3823
eg	-3824
ened	-3825
▁100	-3826
▁yet	-3827
▁reven	-3828
▁identified	-3829
ded	-3830
▁tool	-3831
orders	-3832
▁habit	-3833
▁produc	-3834
▁competition	-3835
AR	-3836
IS	-3837
kc	-3838
lia	-3839
nam	-3840
conn	-3841
▁exc	-3842
▁mię	-3843
▁extend	-3844
▁emerged	-3845
▁experim	-3846
▁considering	-3847
▁series	-3848
sch	-3849
▁cel	-3850
▁dial	-3851
▁largely	-3852
eb	-3853
▁ut	-3854
▁ban	-3855
elles	-3856
▁algorith	-3857
▁documented	-3858
▁partnership	-3859
▁territories	-3860
ceed	-3861
anger	-3862
▁Inter	-3863
▁enough	-3864
olid	-3865
▁dla	-3866
▁During	-3867
▁France	-3868
▁imperial	-3869
▁preservation	-3870
▁Gr	-3871
▁sla	-3872
▁archae	-3873
vil	-3874
▁enabl	-3875
▁economy	-3876
▁failure	-3877
▁serving	-3878
▁consideration	-3879
1.	-3880
▁bud	-3881
▁Egyp	-3882
▁marriage	-3883
▁reasoning	-3884
▁scholarly	-3885
▁architecture	-3886
▁Will	-3887
ountain	-3888
▁cancer	-3889
▁followed	-3890
▁questions	-3891
▁developments	-3892
9,	-3893
??	-3894
TI	-3895
uli	-3896
▁Bl	-3897
ander	-3898
fin	-3899
▁days	-3900
▁sono	-3901
▁possess	-3902
▁philosophy	-3903
▁opportunities	-3904
▁tur	-3905
▁Africa	-3906
▁continuous	-3907
▁0.	-3908
▁sua	-3909
▁minor	-3910
▁symbol	-3911
▁preserv	-3912
▁positioning	-3913
udi	-3914
▁Do	-3915
imens	-3916
▁cover	-3917
▁explan	-3918
▁imposs	-3919
▁written	-3920
▁intellig	-3921
▁solution	-3922
▁meaningful	-3923
med	-3924
▁schools	-3925
▁transmission	-3926
ED	-3927
hal	-3928
▁ni	-3929
iert	-3930
▁oil	-3931
▁mort	-3932
▁resol	-3933
▁asking	-3934
▁voting	-3935
▁surround	-3936
▁molecular	-3937
len	-3938
▁sul	-3939
iform	-3940
▁build	-3941
▁szczeg	-3942
▁volume	-3943
▁computer	-3944
igur	-3945
tico	-3946
▁Sim	-3947
mentary	-3948
▁vision	-3949
▁marketing	-3950
2.	-3951
▁mant	-3952
▁wind	-3953
▁ideas	-3954
▁answer	-3955
▁mental	-3956
▁unclear	-3957
▁From	-3958
▁cele	-3959
▁oblig	-3960
▁hypoth	-3961
fol	-3962
▁Sin	-3963
▁cou	-3964
▁ren	-3965
▁trig	-3966
▁humans	-3967
▁między	-3968
▁bab	-3969
▁whole	-3970
related	-3971
▁includes	-3972
cip	-3973
▁On	-3974
▁didn	-3975
▁extent	-3976
▁skills	-3977
▁focused	-3978
▁statistical	-3979
▁2.	-3980
adas	-3981
rane	-3982
▁Car	-3983
ifications	-3984
▁específic	-3985
zo	-3986
ęd	-3987
▁anc	-3988
▁Given	-3989
▁marked	-3990
▁controlled	-3991
hes	-3992
tery	-3993
▁191	-3994
▁All	-3995
▁give	-3996
▁które	-3997
forward	-3998
▁shaped	-3999
▁protein	-4000
▁principal	-4001
ito	-4002
iles	-4003
lies	-4004
▁pal	-4005
▁vast	-4006
▁places	-4007
▁advanced	-4008
▁construct	-4009
lin	-4010
▁ap	-4011
cont	-4012
▁pan	-4013
▁stim	-4014
▁review	-4015
▁discuss	-4016
▁temporal	-4017
▁verschied	-4018
▁problematic	-4019
▁'	-4020
▁BC	-4021
▁Cal	-4022
▁debate	-4023
▁proces	-4024
▁contributions	-4025
▁mas	-4026
▁National	-4027
alls	-4028
year	-4029
▁rob	-4030
▁acqu	-4031
▁North	-4032
▁apply	-4033
▁elimin	-4034
▁autonom	-4035
▁families	-4036
eter	-4037
ired	-4038
▁himself	-4039
▁location	-4040
▁intellectual	-4041
▁intervention	-4042
augh	-4043
▁sel	-4044
▁dealing	-4045
▁workers	-4046
▁calculations	-4047
eness	-4048
▁centers	-4049
▁parties	-4050
▁adoption	-4051
▁cultures	-4052
▁authentic	-4053
oral	-4054
▁voice	-4055
▁immune	-4056
▁enforce	-4057
▁guidance	-4058
▁direction	-4059
▁universal	-4060
▁legislative	-4061
▁observation	-4062
AS	-4063
sten	-4064
stru	-4065
▁Mod	-4066
utive	-4067
▁combin	-4068
▁traject	-4069
▁anatom	-4070
▁exposure	-4071
▁instance	-4072
▁Ro	-4073
effic	-4074
stood	-4075
ground	-4076
▁America	-4077
▁differenti	-4078
pose	-4079
▁Pol	-4080
▁length	-4081
▁differently	-4082
atin	-4083
▁Gen	-4084
▁spo	-4085
▁sug	-4086
▁matter	-4087
▁platform	-4088
▁frequency	-4089
iał	-4090
▁Cur	-4091
ished	-4092
▁Comp	-4093
▁Austral	-4094
▁records	-4095
▁medieval	-4096
▁solutions	-4097
▁straightforward	-4098
pet	-4099
▁jego	-4100
ptions	-4101
▁Univers	-4102
▁judicial	-4103
▁physiological	-4104
▁hat	-4105
▁reb	-4106
eling	-4107
▁dynamic	-4108
▁attention	-4109
▁opposition	-4110
ygen	-4111
andom	-4112
▁surve	-4113
▁exception	-4114
▁reduction	-4115
3.	-4116
▁sont	-4117
▁never	-4118
▁defined	-4119
▁innovation	-4120
oud	-4121
▁coop	-4122
▁mind	-4123
▁rock	-4124
▁sole	-4125
▁driven	-4126
▁showing	-4127
▁resulting	-4128
▁supported	-4129
▁“	-4130
ias	-4131
arum	-4132
entral	-4133
▁einer	-4134
▁freedom	-4135
▁nuanced	-4136
iny	-4137
▁distric	-4138
▁Los	-4139
▁cop	-4140
▁protocols	-4141
▁representing	-4142
5.	-4143
-19	-4144
▁Dem	-4145
▁soc	-4146
▁excl	-4147
▁carbon	-4148
▁reducing	-4149
▁democratic	-4150
_1	-4151
antit	-4152
▁live	-4153
▁start	-4154
▁inters	-4155
▁formula	-4156
▁affected	-4157
▁engagement	-4158
▁implemented	-4159
▁significativ	-4160
▁(19	-4161
▁five	-4162
▁pregn	-4163
▁confused	-4164
ee	-4165
anz	-4166
nis	-4167
▁Tra	-4168
▁hom	-4169
antic	-4170
▁defic	-4171
▁strict	-4172
plication	-4173
▁Buddhist	-4174
ha	-4175
ients	-4176
vention	-4177
fe	-4178
▁:	-4179
▁CO	-4180
▁gap	-4181
ulture	-4182
▁remarkable	-4183
rix	-4184
▁Pe	-4185
enen	-4186
▁ces	-4187
▁sac	-4188
▁cand	-4189
▁ster	-4190
▁vict	-4191
ference	-4192
▁arrangements	-4193
ej	-4194
▁---	-4195
▁alt	-4196
▁hem	-4197
▁draw	-4198
▁held	-4199
▁Church	-4200
▁markets	-4201
▁somewhat	-4202
pts	-4203
ieren	-4204
illed	-4205
▁camb	-4206
▁fields	-4207
▁prices	-4208
▁publish	-4209
▁understood	-4210
▁Po	-4211
vere	-4212
▁éta	-4213
ommod	-4214
▁wrong	-4215
éri	-4216
_1">	-4217
cipl	-4218
▁exchange	-4219
▁concentration	-4220
▁participation	-4221
adox	-4222
ried	-4223
▁195	-4224
▁cut	-4225
▁esta	-4226
▁black	-4227
5%	-4228
zw	-4229
ove	-4230
▁Acc	-4231
▁Des	-4232
aving	-4233
▁helped	-4234
▁speech	-4235
▁sistema	-4236
▁focusing	-4237
▁mathematic	-4238
rag	-4239
cons	-4240
▁few	-4241
▁rom	-4242
▁King	-4243
▁addressing	-4244
▁progression	-4245
ona	-4246
upp	-4247
▁Me	-4248
▁ot	-4249
onding	-4250
▁simpl	-4251
▁ensuring	-4252
▁according	-4253
▁respective	-4254
▁gru	-4255
▁terror	-4256
▁typical	-4257
▁controvers	-4258
hab	-4259
ows	-4260
rant	-4261
iliar	-4262
▁birth	-4263
▁extra	-4264
▁Empire	-4265
▁animal	-4266
▁enhance	-4267
▁ethical	-4268
▁varying	-4269
▁accommod	-4270
▁collabor	-4271
dict	-4272
▁embar	-4273
▁lines	-4274
▁managing	-4275
vi	-4276
ames	-4277
ismo	-4278
▁ampl	-4279
▁exerc	-4280
▁write	-4281
▁fragment	-4282
▁responsible	-4283
etal	-4284
▁pros	-4285
▁metal	-4286
▁satisf	-4287
▁technique	-4288
óg	-4289
bus	-4290
olo	-4291
▁1,	-4292
▁192	-4293
▁auch	-4294
▁fond	-4295
▁accum	-4296
▁amount	-4297
▁trends	-4298
▁seeking	-4299
▁currently	-4300
▁operation	-4301
bar	-4302
airs	-4303
▁stop	-4304
▁First	-4305
▁search	-4306
▁criteria	-4307
ici	-4308
ähr	-4309
▁sin	-4310
celer	-4311
▁worth	-4312
▁purely	-4313
▁looking	-4314
▁categories	-4315
ocr	-4316
ticas	-4317
▁sent	-4318
▁carry	-4319
▁oxygen	-4320
▁fascinating	-4321
ips	-4322
osa	-4323
▁Asia	-4324
▁Muslim	-4325
▁leaders	-4326
▁experienced	-4327
▁establishment	-4328
my	-4329
▁Sc	-4330
▁uit	-4331
▁fear	-4332
▁reveal	-4333
ba	-4334
▁Ce	-4335
edic	-4336
▁God	-4337
attle	-4338
▁third	-4339
osystem	-4340
▁decade	-4341
▁division	-4342
▁protections	-4343
▁foundational	-4344
▁architectural	-4345
▁lif	-4346
▁sea	-4347
▁lost	-4348
ori	-4349
ühr	-4350
lung	-4351
▁Nor	-4352
▁Was	-4353
▁dou	-4354
▁varies	-4355
▁deliber	-4356
▁funding	-4357
▁receive	-4358
▁integrated	-4359
▁x	-4360
nymi	-4361
▁Jew	-4362
▁prem	-4363
tering	-4364
▁muscle	-4365
▁propri	-4366
▁largest	-4367
▁produced	-4368
▁geometric	-4369
▁collection	-4370
RI	-4371
uel	-4372
cean	-4373
▁ben	-4374
ectors	-4375
▁sites	-4376
pression	-4377
▁electric	-4378
▁achieving	-4379
▁conventional	-4380
▁dz	-4381
▁left	-4382
itizens	-4383
▁density	-4384
▁configur	-4385
▁diversity	-4386
uls	-4387
▁rz	-4388
rist	-4389
▁Met	-4390
▁fit	-4391
▁mal	-4392
▁wat	-4393
acing	-4394
▁bone	-4395
▁scri	-4396
▁goods	-4397
▁input	-4398
▁adjust	-4399
▁Republic	-4400
▁proteins	-4401
enses	-4402
▁weap	-4403
▁criminal	-4404
RE	-4405
aron	-4406
▁Het	-4407
▁hor	-4408
anges	-4409
▁profound	-4410
▁flexibility	-4411
ró	-4412
▁ho	-4413
▁Cath	-4414
▁memb	-4415
▁repe	-4416
▁orient	-4417
▁quantit	-4418
▁standar	-4419
eds	-4420
zing	-4421
▁hous	-4422
▁quanti	-4423
▁relevant	-4424
▁theological	-4425
ini	-4426
organ	-4427
pread	-4428
resent	-4429
▁included	-4430
4.	-4431
ena	-4432
ían	-4433
▁Ze	-4434
▁mid	-4435
▁able	-4436
▁identify	-4437
tification	-4438
▁Hi	-4439
▁nach	-4440
▁questa	-4441
▁competing	-4442
▁interventions	-4443
▁11	-4444
ulate	-4445
▁East	-4446
▁random	-4447
▁describe	-4448
▁majority	-4449
imensional	-4450
▁rappresent	-4451
▁mé	-4452
most	-4453
▁uns	-4454
▁miss	-4455
▁took	-4456
▁hours	-4457
▁interconn	-4458
ei	-4459
ór	-4460
thetic	-4461
▁hyper	-4462
▁indicate	-4463
▁interesting	-4464
can	-4465
▁inten	-4466
▁novel	-4467
▁thres	-4468
▁relativ	-4469
▁citizens	-4470
▁commonly	-4471
ès	-4472
nel	-4473
▁hi	-4474
iten	-4475
▁here	-4476
▁diese	-4477
▁error	-4478
▁format	-4479
▁conflicts	-4480
bl	-4481
hic	-4482
tes	-4483
ómo	-4484
iger	-4485
pers	-4486
▁adequ	-4487
▁advoc	-4488
▁speak	-4489
▁revers	-4490
▁relates	-4491
▁improved	-4492
fare	-4493
▁esp	-4494
enden	-4495
▁enzy	-4496
▁farm	-4497
▁least	-4498
▁track	-4499
▁danger	-4500
▁nation	-4501
▁shifts	-4502
▁purpose	-4503
▁revenue	-4504
▁zo	-4505
alian	-4506
▁consid	-4507
▁nuclear	-4508
▁recovery	-4509
▁variable	-4510
▁accessible	-4511
ög	-4512
enia	-4513
rors	-4514
▁mais	-4515
▁block	-4516
▁fight	-4517
▁który	-4518
▁phase	-4519
▁descri	-4520
▁zwischen	-4521
▁connected	-4522
▁ecosystem	-4523
▁impossible	-4524
cil	-4525
osis	-4526
tivamente	-4527
▁threshold	-4528
▁profession	-4529
ax	-4530
lus	-4531
ilib	-4532
ował	-4533
▁mob	-4534
▁heavily	-4535
▁subject	-4536
▁consolid	-4537
▁restrictions	-4538
ads	-4539
cio	-4540
ray	-4541
▁zur	-4542
▁consumer	-4543
▁separation	-4544
▁sunt	-4545
isation	-4546
▁object	-4547
▁feature	-4548
▁dominant	-4549
▁commitment	-4550
▁complications	-4551
▁##	-4552
▁clean	-4553
▁continues	-4554
▁distinctive	-4555
▁personality	-4556
▁transportation	-4557
ga	-4558
aba	-4559
ola	-4560
▁cred	-4561
▁może	-4562
▁cerem	-4563
▁parti	-4564
▁taking	-4565
▁intelligence	-4566
▁cy	-4567
ront	-4568
▁hon	-4569
▁goals	-4570
▁Russian	-4571
idespread	-4572
▁symbolic	-4573
▁scenarios	-4574
▁gł	-4575
0,000	-4576
▁soft	-4577
ascular	-4578
▁embargo	-4579
▁mountain	-4580
▁settings	-4581
▁radiation	-4582
▁standardiz	-4583
▁widespread	-4584
▁documentation	-4585
uer	-4586
▁Ke	-4587
ought	-4588
▁fire	-4589
▁months	-4590
▁nearly	-4591
▁existence	-4592
enie	-4593
▁output	-4594
▁received	-4595
aff	-4596
▁trib	-4597
▁znac	-4598
▁meant	-4599
endment	-4600
▁actively	-4601
▁believed	-4602
▁Lu	-4603
lamm	-4604
medi	-4605
rect	-4606
asion	-4607
▁acceler	-4608
▁paradox	-4609
▁channels	-4610
▁projects	-4611
lle	-4612
avia	-4613
▁wal	-4614
▁conqu	-4615
▁possib	-4616
▁subjec	-4617
▁causing	-4618
▁massive	-4619
▁accounts	-4620
▁scenario	-4621
▁permanent	-4622
itis	-4623
▁bez	-4624
▁cul	-4625
▁mel	-4626
▁marg	-4627
istance	-4628
▁operating	-4629
▁regulation	-4630
ker	-4631
asty	-4632
cias	-4633
eper	-4634
itiv	-4635
olar	-4636
▁dar	-4637
weise	-4638
▁cong	-4639
▁liqu	-4640
▁nego	-4641
ietnam	-4642
tiques	-4643
▁spaces	-4644
▁changed	-4645
tige	-4646
▁Brit	-4647
▁bran	-4648
astern	-4649
▁Rather	-4650
▁creation	-4651
▁resolution	-4652
▁experiencing	-4653
rum	-4654
unic	-4655
▁sle	-4656
osing	-4657
▁neut	-4658
▁antib	-4659
▁names	-4660
▁prohib	-4661
▁attacks	-4662
▁argument	-4663
▁parameters	-4664
▁historically	-4665
▁30	-4666
atio	-4667
erior	-4668
▁iron	-4669
▁compless	-4670
▁discover	-4671
▁precision	-4672
▁recognize	-4673
▁everything	-4674
▁Mu	-4675
erge	-4676
▁Ent	-4677
itors	-4678
preme	-4679
▁prés	-4680
▁traum	-4681
▁clearly	-4682
▁quickly	-4683
ographical	-4684
▁conscious	-4685
▁mentioned	-4686
▁sustained	-4687
▁surrounding	-4688
udes	-4689
▁list	-4690
stream	-4691
▁version	-4692
▁compounds	-4693
dimensional	-4694
▁engineering	-4695
▁computational	-4696
igu	-4697
▁ur	-4698
▁fru	-4699
▁tit	-4700
stead	-4701
▁alla	-4702
▁guar	-4703
▁können	-4704
▁discrim	-4705
▁parents	-4706
▁traffic	-4707
▁consistently	-4708
-2	-4709
▁half	-4710
▁candid	-4711
▁proved	-4712
▁inherent	-4713
▁detection	-4714
▁societies	-4715
rze	-4716
▁Li	-4717
ości	-4718
ensus	-4719
▁note	-4720
▁purs	-4721
▁mixed	-4722
▁caused	-4723
▁physics	-4724
▁navigate	-4725
▁component	-4726
▁phenomenon	-4727
▁predictions	-4728
är	-4729
lit	-4730
▁reading	-4731
▁organized	-4732
ocal	-4733
▁ale	-4734
▁fal	-4735
▁mir	-4736
▁rej	-4737
ports	-4738
▁scientists	-4739
▁arrangement	-4740
▁0	-4741
aph	-4742
pass	-4743
▁cold	-4744
▁infin	-4745
▁exists	-4746
▁matrix	-4747
▁outcome	-4748
▁expanded	-4749
▁tensions	-4750
▁previously	-4751
▁calculation	-4752
▁availability	-4753
IC	-4754
ND	-4755
aż	-4756
▁dro	-4757
omplex	-4758
▁manip	-4759
▁Intern	-4760
▁instrument	-4761
án	-4762
cop	-4763
▁Go	-4764
tile	-4765
ured	-4766
▁mov	-4767
▁quae	-4768
▁ancest	-4769
▁logical	-4770
▁According	-4771
▁diagnostic	-4772
▁recognizing	-4773
▁conservation	-4774
owej	-4775
iding	-4776
istor	-4777
onial	-4778
▁site	-4779
ulated	-4780
▁thous	-4781
▁neural	-4782
▁nations	-4783
▁outside	-4784
▁weather	-4785
placement	-4786
▁reliability	-4787
".	-4788
mon	-4789
son	-4790
▁50	-4791
tiva	-4792
▁hol	-4793
antes	-4794
ching	-4795
▁Cont	-4796
issance	-4797
▁essere	-4798
▁legacy	-4799
▁offers	-4800
▁mainten	-4801
▁determined	-4802
▁ecological	-4803
▁reflecting	-4804
▁preferences	-4805
▁effectivement	-4806
ump	-4807
▁Kh	-4808
▁tu	-4809
▁Mon	-4810
▁vehic	-4811
▁breath	-4812
▁Instead	-4813
▁equival	-4814
▁introduced	-4815
cyj	-4816
inn	-4817
▁ihre	-4818
▁violence	-4819
▁synthesis	-4820
▁definition	-4821
zt	-4822
ett	-4823
aten	-4824
roph	-4825
▁link	-4826
▁rail	-4827
elijke	-4828
▁peace	-4829
▁failed	-4830
▁defense	-4831
▁enforcement	-4832
▁six	-4833
▁tox	-4834
arroll	-4835
▁square	-4836
▁correspond	-4837
▁authorities	-4838
IT	-4839
▁Bo	-4840
ache	-4841
eczy	-4842
▁190	-4843
▁Pal	-4844
▁hin	-4845
▁wsp	-4846
▁Even	-4847
▁genes	-4848
▁wurde	-4849
▁doctrine	-4850
▁interaction	-4851
lass	-4852
▁ech	-4853
▁brand	-4854
▁older	-4855
▁compens	-4856
▁dimensions	-4857
9.	-4858
nak	-4859
▁din	-4860
▁bard	-4861
▁prol	-4862
▁basis	-4863
▁fluid	-4864
▁metric	-4865
▁motion	-4866
▁stabil	-4867
▁viewed	-4868
▁warfare	-4869
▁territory	-4870
▁contradiction	-4871
EC	-4872
▁Sw	-4873
▁One	-4874
▁cin	-4875
▁bank	-4876
▁intr	-4877
▁useful	-4878
▁classes	-4879
▁generation	-4880
tee	-4881
▁mi	-4882
▁wyk	-4883
▁peak	-4884
▁faster	-4885
▁follows	-4886
▁experiment	-4887
▁structured	-4888
▁supporting	-4889
▁revolutionary	-4890
rod	-4891
▁swo	-4892
andon	-4893
▁Port	-4894
▁grant	-4895
▁barriers	-4896
▁maintains	-4897
7.	-4898
ęp	-4899
ava	-4900
bal	-4901
▁3.	-4902
▁niet	-4903
▁repl	-4904
▁wild	-4905
▁desarroll	-4906
▁collective	-4907
eme	-4908
atem	-4909
ktur	-4910
▁bird	-4911
▁doing	-4912
▁nella	-4913
▁magnetic	-4914
▁theories	-4915
ńsk	-4916
▁Ob	-4917
reen	-4918
▁mol	-4919
▁deze	-4920
▁pron	-4921
rought	-4922
anda	-4923
▁geb	-4924
▁Iran	-4925
▁else	-4926
▁idea	-4927
▁deriv	-4928
▁tasks	-4929
▁tissue	-4930
▁extends	-4931
▁quantum	-4932
▁addition	-4933
▁emphasis	-4934
▁disorders	-4935
▁remaining	-4936
▁variation	-4937
▁perception	-4938
▁archaeological	-4939
eli	-4940
opp	-4941
▁Dec	-4942
▁aim	-4943
▁pap	-4944
▁crisis	-4945
▁gravit	-4946
▁billion	-4947
▁Japanese	-4948
▁extremely	-4949
▁gi	-4950
spec	-4951
uses	-4952
▁Ang	-4953
▁vent	-4954
▁immun	-4955
unction	-4956
▁exempl	-4957
▁choices	-4958
▁struggle	-4959
▁importante	-4960
▁trajectory	-4961
▁coordination	-4962
▁os	-4963
▁fis	-4964
▁suo	-4965
iance	-4966
▁fran	-4967
▁pack	-4968
▁shar	-4969
▁tant	-4970
othing	-4971
▁Union	-4972
▁bring	-4973
▁trend	-4974
▁requirement	-4975
▁technologies	-4976
6.	-4977
▁né	-4978
ność	-4979
▁put	-4980
▁host	-4981
▁mand	-4982
▁coast	-4983
▁beliefs	-4984
▁creative	-4985
ora	-4986
vis	-4987
oting	-4988
▁West	-4989
▁stage	-4990
▁sample	-4991
▁widely	-4992
ré	-4993
łoż	-4994
ynam	-4995
▁Har	-4996
▁sure	-4997
▁reput	-4998
▁appoint	-4999
▁uniform	-5000
▁monitoring	-5001
▁procedural	-5002
▁protective	-5003
▁interpretations	-5004
AC	-5005
ui	-5006
yer	-5007
▁Its	-5008
▁tym	-5009
ading	-5010
▁male	-5011
▁proof	-5012
▁sector	-5013
▁reference	-5014
▁frequently	-5015
▁Pa	-5016
▁Sen	-5017
▁rare	-5018
▁stri	-5019
▁spati	-5020
▁negoti	-5021
▁Vietnam	-5022
▁contact	-5023
▁timeline	-5024
▁1980	-5025
depend	-5026
onomic	-5027
▁books	-5028
▁usage	-5029
dictions	-5030
▁objectives	-5031
ago	-5032
omo	-5033
iden	-5034
ompass	-5035
▁ideal	-5036
▁noting	-5037
▁command	-5038
▁distrib	-5039
ID	-5040
LE	-5041
tu	-5042
lie	-5043
zed	-5044
▁Min	-5045
▁Res	-5046
▁rit	-5047
▁vic	-5048
▁felt	-5049
▁soil	-5050
▁wpły	-5051
▁adopted	-5052
▁progressive	-5053
emy	-5054
kład	-5055
▁san	-5056
▁mole	-5057
▁rzeczy	-5058
▁signals	-5059
▁feedback	-5060
RO	-5061
hi	-5062
▁App	-5063
▁Aug	-5064
▁vit	-5065
isons	-5066
▁fast	-5067
▁bodies	-5068
▁manten	-5069
▁script	-5070
▁categor	-5071
▁intended	-5072
▁encompass	-5073
▁pregnancy	-5074
▁regulations	-5075
▁manufacturing	-5076
äng	-5077
bert	-5078
este	-5079
▁lic	-5080
▁tec	-5081
▁texts	-5082
▁maximum	-5083
▁handling	-5084
▁migration	-5085
▁provisions	-5086
▁experimental	-5087
ają	-5088
ime	-5089
eces	-5090
icing	-5091
itage	-5092
▁poet	-5093
▁graph	-5094
▁compli	-5095
▁evolve	-5096
▁contains	-5097
▁beginning	-5098
8.	-5099
ao	-5100
uto	-5101
▁Co	-5102
isti	-5103
▁déc	-5104
▁edge	-5105
▁oraz	-5106
ifying	-5107
▁plays	-5108
▁Catholic	-5109
▁Research	-5110
▁remember	-5111
▁studying	-5112
▁comparing	-5113
▁inherently	-5114
lè	-5115
unk	-5116
▁ru	-5117
wards	-5118
▁Supreme	-5119
▁contributes	-5120
zioni	-5121
▁Prot	-5122
▁ratio	-5123
▁appeal	-5124
formation	-5125
IV	-5126
dz	-5127
org	-5128
owi	-5129
▁wo	-5130
rian	-5131
▁artic	-5132
▁heavy	-5133
position	-5134
▁communic	-5135
▁election	-5136
▁expected	-5137
▁confidence	-5138
▁optimization	-5139
US	-5140
▁Mo	-5141
eder	-5142
rust	-5143
▁han	-5144
▁loro	-5145
▁vote	-5146
▁truth	-5147
▁choose	-5148
▁symmet	-5149
▁absence	-5150
▁certainly	-5151
▁improvements	-5152
bes	-5153
erd	-5154
ched	-5155
▁clu	-5156
aires	-5157
▁1970	-5158
▁safe	-5159
orship	-5160
▁empir	-5161
▁Germany	-5162
▁evolving	-5163
▁legislation	-5164
An	-5165
ittle	-5166
▁foss	-5167
▁zero	-5168
▁August	-5169
▁correl	-5170
▁automatic	-5171
▁gradually	-5172
▁particles	-5173
ds	-5174
▁Bra	-5175
▁Char	-5176
▁enti	-5177
▁mogą	-5178
▁préc	-5179
▁stan	-5180
▁sleep	-5181
▁Jewish	-5182
▁mother	-5183
▁signal	-5184
▁abandon	-5185
▁protect	-5186
eff	-5187
enc	-5188
gra	-5189
agen	-5190
down	-5191
iego	-5192
▁dry	-5193
▁enf	-5194
▁gets	-5195
▁vess	-5196
uments	-5197
▁pharm	-5198
▁waste	-5199
▁options	-5200
▁duration	-5201
▁familiar	-5202
▁allocation	-5203
▁researchers	-5204
▁Mal	-5205
▁peu	-5206
itted	-5207
▁tras	-5208
ologie	-5209
▁House	-5210
▁river	-5211
▁origins	-5212
▁explains	-5213
▁integrity	-5214
anno	-5215
peror	-5216
▁sets	-5217
▁skin	-5218
elines	-5219
▁excess	-5220
▁tactical	-5221
hl	-5222
acyj	-5223
▁ses	-5224
▁leads	-5225
▁royal	-5226
▁celebr	-5227
▁intens	-5228
▁racial	-5229
▁binding	-5230
▁lasting	-5231
▁audience	-5232
▁validity	-5233
▁affecting	-5234
tise	-5235
▁overs	-5236
▁president	-5237
▁interconnected	-5238
pi	-5239
pic	-5240
▁og	-5241
cher	-5242
level	-5243
▁praw	-5244
elfare	-5245
▁diver	-5246
▁defend	-5247
▁adapted	-5248
▁adaptations	-5249
▁methodology	-5250
▁jurisdiction	-5251
▁responsibility	-5252
iae	-5253
yro	-5254
▁IN	-5255
atus	-5256
mark	-5257
ziej	-5258
▁onder	-5259
▁highest	-5260
▁electron	-5261
▁metabolic	-5262
▁University	-5263
kl	-5264
wide	-5265
▁Ein	-5266
gebra	-5267
▁Black	-5268
▁alter	-5269
▁notic	-5270
▁Eastern	-5271
▁enables	-5272
▁justice	-5273
ws	-5274
yw	-5275
orzy	-5276
▁bij	-5277
▁esc	-5278
ólnie	-5279
▁code	-5280
▁fair	-5281
▁foot	-5282
▁spect	-5283
▁course	-5284
▁proceed	-5285
▁dangerous	-5286
▁fondament	-5287
▁continuity	-5288
":	-5289
.,	-5290
rate	-5291
where	-5292
▁bond	-5293
▁game	-5294
▁goal	-5295
▁abstr	-5296
▁motor	-5297
▁solid	-5298
▁forced	-5299
▁merely	-5300
▁discipl	-5301
▁concrete	-5302
ky	-5303
łu	-5304
▁Kon	-5305
▁anatomical	-5306
▁compliance	-5307
▁perspectives	-5308
uge	-5309
usal	-5310
▁Bar	-5311
▁Dis	-5312
▁dan	-5313
▁equip	-5314
▁paper	-5315
▁acknow	-5316
▁coming	-5317
▁complet	-5318
▁happened	-5319
▁precisely	-5320
▁temporary	-5321
▁conceptual	-5322
rupt	-5323
▁Haec	-5324
▁immig	-5325
itarian	-5326
uttavia	-5327
▁welfare	-5328
▁legitimate	-5329
▁percentage	-5330
▁preventing	-5331
▁expectations	-5332
▁developmental	-5333
gm	-5334
▁Ho	-5335
itig	-5336
▁eti	-5337
ormal	-5338
owania	-5339
▁unpre	-5340
▁reaction	-5341
▁targeted	-5342
▁campaigns	-5343
▁perceived	-5344
ING	-5345
ete	-5346
cell	-5347
fort	-5348
▁fue	-5349
▁sow	-5350
▁unf	-5351
cules	-5352
ement	-5353
ensch	-5354
▁Isra	-5355
abilit	-5356
ährend	-5357
▁drive	-5358
▁evolu	-5359
igenous	-5360
▁budget	-5361
▁charge	-5362
▁routes	-5363
▁northern	-5364
▁complicated	-5365
▁contributing	-5366
än	-5367
iene	-5368
ista	-5369
▁ice	-5370
▁zou	-5371
▁Pres	-5372
öglich	-5373
▁inhib	-5374
▁precis	-5375
▁transc	-5376
▁artists	-5377
▁dynasty	-5378
▁reforms	-5379
▁findings	-5380
▁vulnerable	-5381
▁modifications	-5382
▁May	-5383
▁kun	-5384
▁naj	-5385
oding	-5386
▁Many	-5387
▁vacc	-5388
igkeit	-5389
▁Latin	-5390
▁morph	-5391
▁deeper	-5392
▁liquid	-5393
▁worden	-5394
▁tourism	-5395
▁prominent	-5396
ikk	-5397
▁Br	-5398
berg	-5399
▁qué	-5400
estiv	-5401
▁muse	-5402
▁stay	-5403
▁teor	-5404
▁attra	-5405
▁depar	-5406
▁veget	-5407
▁était	-5408
▁deeply	-5409
▁errors	-5410
▁limits	-5411
▁England	-5412
▁radical	-5413
dis	-5414
rich	-5415
▁kid	-5416
▁ball	-5417
▁bere	-5418
▁encou	-5419
▁potre	-5420
▁discovery	-5421
▁observing	-5422
10	-5423
umb	-5424
▁Ste	-5425
▁hub	-5426
▁Kore	-5427
ounced	-5428
▁faith	-5429
▁almost	-5430
▁empire	-5431
▁demands	-5432
▁reveals	-5433
▁Tuttavia	-5434
▁dominance	-5435
▁involvement	-5436
▁medications	-5437
ör	-5438
▁Mex	-5439
ifies	-5440
▁pict	-5441
▁explo	-5442
▁ocean	-5443
▁purch	-5444
▁System	-5445
▁liability	-5446
▁generations	-5447
▁instruments	-5448
des	-5449
▁186	-5450
▁189	-5451
▁ple	-5452
▁Which	-5453
▁telev	-5454
▁meters	-5455
▁vector	-5456
▁paralle	-5457
▁enhanced	-5458
▁background	-5459
▁explicitly	-5460
▁dramatically	-5461
▁|	-5462
ked	-5463
▁Aus	-5464
▁Ber	-5465
heric	-5466
world	-5467
▁myth	-5468
▁syst	-5469
iction	-5470
▁views	-5471
▁retain	-5472
▁chronic	-5473
▁pricing	-5474
▁religion	-5475
▁ownership	-5476
▁conversion	-5477
ún	-5478
ums	-5479
▁aud	-5480
▁hac	-5481
▁kom	-5482
▁ven	-5483
point	-5484
▁arri	-5485
▁band	-5486
▁radio	-5487
vereign	-5488
▁Russia	-5489
▁played	-5490
▁robust	-5491
cription	-5492
▁brought	-5493
▁proposed	-5494
▁presidential	-5495
roup	-5496
▁rég	-5497
▁rés	-5498
ussen	-5499
▁veloc	-5500
acional	-5501
▁focuses	-5502
▁located	-5503
▁addressed	-5504
▁gravitational	-5505
▁fon	-5506
▁win	-5507
▁won	-5508
▁wym	-5509
▁tecn	-5510
▁Great	-5511
▁Hindu	-5512
▁green	-5513
▁Christ	-5514
▁detect	-5515
▁disput	-5516
▁inside	-5517
▁reached	-5518
▁teacher	-5519
▁audiences	-5520
▁examining	-5521
▁illustrates	-5522
yd	-5523
ál	-5524
▁za	-5525
▁zm	-5526
iere	-5527
▁swe	-5528
aties	-5529
▁rise	-5530
▁moved	-5531
ressive	-5532
▁linear	-5533
▁Entwick	-5534
▁beneficial	-5535
▁employment	-5536
bor	-5537
lav	-5538
▁dal	-5539
▁hot	-5540
▁Coun	-5541
▁cond	-5542
▁złoż	-5543
amento	-5544
▁autom	-5545
▁watch	-5546
lective	-5547
▁flavor	-5548
▁formed	-5549
▁constru	-5550
▁managed	-5551
▁mission	-5552
▁stories	-5553
▁employed	-5554
▁guarante	-5555
▁locations	-5556
▁reporting	-5557
▁translate	-5558
ya	-5559
ift	-5560
emia	-5561
ität	-5562
otal	-5563
wise	-5564
▁spez	-5565
▁Asian	-5566
▁ethnic	-5567
▁unable	-5568
▁kilomet	-5569
▁matters	-5570
▁measured	-5571
▁sequence	-5572
▁medication	-5573
▁terminology	-5574
ême	-5575
umin	-5576
▁Der	-5577
▁Ter	-5578
▁sun	-5579
▁este	-5580
▁gram	-5581
▁konk	-5582
▁neigh	-5583
▁thick	-5584
ächlich	-5585
▁Modern	-5586
▁helping	-5587
▁describing	-5588
▁evaluation	-5589
▁participants	-5590
ev	-5591
ham	-5592
▁Tur	-5593
▁ran	-5594
▁zich	-5595
▁toler	-5596
▁andere	-5597
▁charak	-5598
▁ensures	-5599
▁threats	-5600
▁trigger	-5601
▁equation	-5602
▁generate	-5603
▁modeling	-5604
▁consistency	-5605
▁governments	-5606
ef	-5607
arc	-5608
▁smo	-5609
▁1960	-5610
▁defe	-5611
▁hosp	-5612
▁decis	-5613
▁reson	-5614
▁bridge	-5615
▁leader	-5616
▁middle	-5617
ceptions	-5618
▁collect	-5619
▁sovereign	-5620
▁positioned	-5621
▁heb	-5622
omial	-5623
▁cool	-5624
▁neur	-5625
▁pero	-5626
ilibri	-5627
▁reinfor	-5628
▁exclusive	-5629
▁businesses	-5630
▁characters	-5631
▁distributed	-5632
▁temperatures	-5633
EM	-5634
lue	-5635
▁Mc	-5636
amil	-5637
czas	-5638
▁moż	-5639
▁sat	-5640
xiety	-5641
▁1990	-5642
▁svil	-5643
▁effort	-5644
▁seeing	-5645
▁svilupp	-5646
▁compromise	-5647
hn	-5648
ju	-5649
ría	-5650
▁Ins	-5651
▁dos	-5652
chied	-5653
▁gold	-5654
▁horm	-5655
▁rely	-5656
▁tail	-5657
▁phosph	-5658
▁driving	-5659
▁disorder	-5660
▁agreements	-5661
▁methodological	-5662
wie	-5663
▁cry	-5664
▁fib	-5665
▁été	-5666
omodo	-5667
scale	-5668
▁gave	-5669
▁false	-5670
imiento	-5671
▁degree	-5672
luc	-5673
▁25	-5674
iano	-5675
être	-5676
▁czę	-5677
▁dop	-5678
▁Lond	-5679
▁trad	-5680
▁trop	-5681
▁Simil	-5682
▁chain	-5683
▁atmosp	-5684
▁relate	-5685
▁capable	-5686
oma	-5687
zego	-5688
▁adver	-5689
▁faces	-5690
▁rural	-5691
▁island	-5692
▁systemic	-5693
▁electrical	-5694
▁Ta	-5695
ocks	-5696
itude	-5697
zenia	-5698
▁waar	-5699
▁fixed	-5700
▁going	-5701
▁haben	-5702
▁penal	-5703
▁destro	-5704
▁interf	-5705
▁komplex	-5706
▁spatial	-5707
▁stronger	-5708
80	-5709
▁Ac	-5710
rait	-5711
▁Fre	-5712
▁York	-5713
▁dead	-5714
▁kann	-5715
vation	-5716
▁Party	-5717
▁interv	-5718
▁retire	-5719
▁uncons	-5720
▁theorem	-5721
▁departure	-5722
▁capability	-5723
▁ideological	-5724
▁conservative	-5725
wią	-5726
▁wz	-5727
▁Deze	-5728
▁astr	-5729
▁solo	-5730
ulties	-5731
▁sales	-5732
▁taxes	-5733
▁letter	-5734
▁pathway	-5735
▁spending	-5736
▁artificial	-5737
▁implementing	-5738
▁OF	-5739
amen	-5740
uman	-5741
wend	-5742
▁bor	-5743
▁gdy	-5744
unque	-5745
▁quam	-5746
▁wird	-5747
▁below	-5748
▁compr	-5749
▁depth	-5750
▁jedoch	-5751
▁consent	-5752
▁treatments	-5753
iff	-5754
pir	-5755
asts	-5756
nder	-5757
▁cam	-5758
▁cré	-5759
erves	-5760
▁Mars	-5761
▁mehr	-5762
▁reci	-5763
▁After	-5764
▁algebra	-5765
▁bacteria	-5766
▁corporate	-5767
▁evaluating	-5768
pa	-5769
aes	-5770
erk	-5771
rie	-5772
▁Jahr	-5773
▁baby	-5774
▁died	-5775
▁prak	-5776
asting	-5777
▁easily	-5778
▁ritual	-5779
▁anxiety	-5780
▁inflamm	-5781
▁intermedi	-5782
itan	-5783
miss	-5784
▁nur	-5785
▁tip	-5786
leich	-5787
▁devi	-5788
▁fuel	-5789
▁dével	-5790
▁heard	-5791
▁items	-5792
▁promo	-5793
▁constitu	-5794
▁agreement	-5795
▁concerned	-5796
▁interplay	-5797
▁molecules	-5798
▁transformed	-5799
30	-5800
lé	-5801
set	-5802
tek	-5803
▁mur	-5804
▁orb	-5805
atric	-5806
owego	-5807
▁spéc	-5808
▁trou	-5809
▁earth	-5810
▁assign	-5811
▁nécess	-5812
wareness	-5813
▁rapidly	-5814
▁release	-5815
▁criticism	-5816
▁elections	-5817
▁objective	-5818
▁verschill	-5819
▁advancement	-5820
▁szczególnie	-5821
▁difficulties	-5822
nia	-5823
ball	-5824
▁187	-5825
▁równ	-5826
▁River	-5827
▁chrom	-5828
▁delay	-5829
▁shown	-5830
▁whose	-5831
▁proven	-5832
▁provin	-5833
▁refers	-5834
▁exercise	-5835
▁heritage	-5836
▁teaching	-5837
▁infection	-5838
▁protected	-5839
▁coordinate	-5840
ady	-5841
oir	-5842
▁mist	-5843
▁culti	-5844
▁fewer	-5845
▁label	-5846
▁nucle	-5847
▁worked	-5848
▁originally	-5849
.)	-5850
zz	-5851
noc	-5852
ergy	-5853
▁Not	-5854
▁nit	-5855
▁Form	-5856
▁Trans	-5857
▁display	-5858
▁autonomy	-5859
▁attravers	-5860
▁explanation	-5861
▁immediately	-5862
In	-5863
win	-5864
▁UN	-5865
hyth	-5866
exist	-5867
ogene	-5868
produ	-5869
▁ment	-5870
▁einen	-5871
▁dieser	-5872
▁seasonal	-5873
agg	-5874
igt	-5875
uil	-5876
ype	-5877
▁Si	-5878
▁UK	-5879
▁Um	-5880
pres	-5881
▁Czy	-5882
▁egg	-5883
▁2000	-5884
▁capt	-5885
▁gran	-5886
▁chron	-5887
▁truly	-5888
▁finite	-5889
▁polity	-5890
▁weapons	-5891
▁Southern	-5892
yr	-5893
zer	-5894
orph	-5895
▁har	-5896
▁Land	-5897
▁prep	-5898
▁wood	-5899
▁image	-5900
▁mayor	-5901
▁Questo	-5902
▁height	-5903
▁triang	-5904
ployment	-5905
▁cooking	-5906
dependent	-5907
▁diseases	-5908
▁partners	-5909
▁severity	-5910
▁versions	-5911
anu	-5912
rees	-5913
zent	-5914
▁Ges	-5915
▁Tem	-5916
▁pré	-5917
gence	-5918
▁acts	-5919
▁hybr	-5920
▁maar	-5921
▁attit	-5922
▁films	-5923
▁closed	-5924
▁cycles	-5925
▁kunnen	-5926
▁unified	-5927
▁usually	-5928
▁opposite	-5929
▁awareness	-5930
▁empirical	-5931
▁statements	-5932
▁atmospheric	-5933
uras	-5934
▁być	-5935
ników	-5936
▁nerve	-5937
▁rigor	-5938
▁discre	-5939
▁dispar	-5940
▁giving	-5941
▁estable	-5942
▁boundary	-5943
▁emerging	-5944
▁balancing	-5945
▁consensus	-5946
▁emphasized	-5947
▁cooperation	-5948
nik	-5949
▁ya	-5950
ague	-5951
esti	-5952
rons	-5953
rown	-5954
▁flo	-5955
aient	-5956
water	-5957
urance	-5958
▁father	-5959
▁punish	-5960
▁disrupt	-5961
▁delivery	-5962
▁reasonable	-5963
auc	-5964
pan	-5965
▁60	-5966
▁Da	-5967
dern	-5968
lucz	-5969
ules	-5970
▁bio	-5971
under	-5972
tition	-5973
▁easier	-5974
▁member	-5975
▁connect	-5976
▁International	-5977
EL	-5978
gl	-5979
▁jo	-5980
rier	-5981
rote	-5982
▁Spr	-5983
illing	-5984
▁inequ	-5985
▁stone	-5986
ception	-5987
▁abstract	-5988
▁acknowled	-5989
▁acceptance	-5990
▁accurately	-5991
▁appearance	-5992
▁electronic	-5993
▁reputation	-5994
▁maintenance	-5995
oi	-5996
su	-5997
▁Sm	-5998
redi	-5999
▁Las	-6000
▁ell	-6001
▁var	-6002
century	-6003
▁Middle	-6004
▁exhibit	-6005
▁slavery	-6006
▁offering	-6007
▁equipment	-6008
▁persistent	-6009
▁initiatives	-6010
▁reproductive	-6011
ees	-6012
ugu	-6013
▁40	-6014
érie	-6015
▁bien	-6016
▁kont	-6017
▁gives	-6018
▁gained	-6019
▁notice	-6020
▁Persian	-6021
▁starting	-6022
▁defensive	-6023
▁secondary	-6024
▁institution	-6025
ET	-6026
irk	-6027
▁sen	-6028
▁via	-6029
▁born	-6030
▁zost	-6031
ierung	-6032
ionale	-6033
odynam	-6034
▁logic	-6035
▁facing	-6036
▁leaving	-6037
▁thermal	-6038
▁examples	-6039
▁equilibri	-6040
▁calculated	-6041
▁influential	-6042
tage	-6043
▁Gru	-6044
▁alb	-6045
▁fle	-6046
▁Here	-6047
▁deal	-6048
▁frag	-6049
▁insu	-6050
▁says	-6051
▁soldi	-6052
▁fertil	-6053
▁judges	-6054
▁pueden	-6055
▁temple	-6056
▁closely	-6057
▁reaching	-6058
▁customers	-6059
▁electoral	-6060
▁contribution	-6061
▁independently	-6062
hou	-6063
raf	-6064
▁aqu	-6065
▁dot	-6066
ograf	-6067
▁High	-6068
▁song	-6069
▁summ	-6070
▁split	-6071
▁worse	-6072
raction	-6073
▁layers	-6074
▁narrow	-6075
▁recall	-6076
▁enabled	-6077
hrer	-6078
▁ble	-6079
▁mes	-6080
▁rend	-6081
▁argue	-6082
▁ended	-6083
▁funkc	-6084
▁naming	-6085
▁domains	-6086
▁facilities	-6087
▁geographical	-6088
DP	-6089
apse	-6090
auti	-6091
heit	-6092
▁Hol	-6093
▁bis	-6094
▁polí	-6095
ischer	-6096
▁Europ	-6097
▁trees	-6098
▁storage	-6099
▁insights	-6100
▁medicine	-6101
▁southern	-6102
▁analyzing	-6103
▁dimension	-6104
▁documents	-6105
▁phenomena	-6106
eks	-6107
isse	-6108
▁Das	-6109
▁pul	-6110
▁sud	-6111
rogen	-6112
▁tego	-6113
▁parte	-6114
pendant	-6115
▁Histor	-6116
▁Second	-6117
▁adults	-6118
▁belang	-6119
▁remind	-6120
▁victory	-6121
▁coverage	-6122
▁reactions	-6123
▁attraverso	-6124
▁considerable	-6125
fac	-6126
▁oc	-6127
ięks	-6128
vant	-6129
▁ric	-6130
▁domain	-6131
▁winter	-6132
▁Italian	-6133
▁intense	-6134
▁bardziej	-6135
▁emphasize	-6136
▁highlight	-6137
▁precedent	-6138
▁discrimination	-6139
rem	-6140
wier	-6141
ición	-6142
ierte	-6143
zenie	-6144
▁rigid	-6145
▁viral	-6146
▁occurring	-6147
▁obligations	-6148
40	-6149
lar	-6150
urt	-6151
aint	-6152
erde	-6153
▁fine	-6154
▁vill	-6155
▁guide	-6156
▁holds	-6157
▁trial	-6158
▁obtain	-6159
▁quando	-6160
▁recept	-6161
▁solely	-6162
▁spécif	-6163
▁equally	-6164
▁forward	-6165
▁peuvent	-6166
▁customer	-6167
▁household	-6168
ież	-6169
rat	-6170
▁21	-6171
ords	-6172
▁bit	-6173
▁cał	-6174
▁dys	-6175
▁Like	-6176
▁opin	-6177
▁proj	-6178
▁einem	-6179
▁joint	-6180
lements	-6181
▁absorb	-6182
▁attach	-6183
▁seiner	-6184
▁coordinated	-6185
▁probability	-6186
mod	-6187
▁zd	-6188
blic	-6189
omer	-6190
ować	-6191
rome	-6192
ères	-6193
▁Sea	-6194
▁army	-6195
▁epis	-6196
▁goes	-6197
▁lose	-6198
▁love	-6199
▁above	-6200
▁hands	-6201
▁sounds	-6202
▁substances	-6203
60	-6204
alis	-6205
staw	-6206
óric	-6207
ingen	-6208
istan	-6209
▁rele	-6210
uzione	-6211
▁adult	-6212
▁Questa	-6213
olitical	-6214
▁believe	-6215
▁clarify	-6216
▁divided	-6217
▁intersection	-6218
lem	-6219
reś	-6220
uty	-6221
iana	-6222
yles	-6223
▁gar	-6224
▁gén	-6225
▁sic	-6226
▁besch	-6227
logical	-6228
orption	-6229
▁traits	-6230
▁abilities	-6231
▁contempor	-6232
▁accounting	-6233
▁indigenous	-6234
▁systematically	-6235
12	-6236
owy	-6237
▁dall	-6238
▁gest	-6239
▁verb	-6240
▁night	-6241
▁quiet	-6242
▁zones	-6243
▁propag	-6244
▁machine	-6245
▁während	-6246
▁limitation	-6247
▁centralized	-6248
imo	-6249
rac	-6250
cion	-6251
▁Pri	-6252
▁gon	-6253
uters	-6254
▁imag	-6255
▁quod	-6256
itivity	-6257
▁Proble	-6258
▁female	-6259
▁former	-6260
▁medium	-6261
▁nombre	-6262
▁repair	-6263
▁evident	-6264
▁student	-6265
▁software	-6266
▁suitable	-6267
▁Cependant	-6268
▁expertise	-6269
▁favorable	-6270
▁Ü	-6271
duc	-6272
cium	-6273
enze	-6274
iers	-6275
lijk	-6276
▁Sun	-6277
▁Most	-6278
▁room	-6279
▁subt	-6280
▁Frank	-6281
▁piece	-6282
▁sizes	-6283
▁stars	-6284
▁steps	-6285
ulative	-6286
▁little	-6287
standing	-6288
terschied	-6289
▁Egyptian	-6290
▁measuring	-6291
70	-6292
ém	-6293
▁ef	-6294
haps	-6295
indi	-6296
▁Sel	-6297
▁vor	-6298
istry	-6299
iteit	-6300
▁incl	-6301
▁seek	-6302
▁synd	-6303
▁anche	-6304
▁effet	-6305
▁toxic	-6306
▁yield	-6307
tischen	-6308
▁players	-6309
ün	-6310
auf	-6311
imm	-6312
eted	-6313
▁ago	-6314
▁kin	-6315
▁mou	-6316
class	-6317
raint	-6318
▁être	-6319
wiście	-6320
▁refle	-6321
▁causal	-6322
▁profit	-6323
▁stream	-6324
▁Britain	-6325
▁astronom	-6326
▁Revolution	-6327
▁geological	-6328
▁distinctions	-6329
MP	-6330
ymi	-6331
▁ak	-6332
▁ju	-6333
omic	-6334
rable	-6335
▁surg	-6336
▁systè	-6337
▁parent	-6338
▁Central	-6339
▁respect	-6340
▁Amendment	-6341
▁consumers	-6342
▁producing	-6343
▁teachings	-6344
▁theoretically	-6345
łą	-6346
▁IS	-6347
esso	-6348
hand	-6349
heid	-6350
▁AND	-6351
▁Sam	-6352
▁cub	-6353
▁tats	-6354
▁etiam	-6355
▁showed	-6356
▁sistem	-6357
▁spezif	-6358
▁minimal	-6359
▁reduces	-6360
▁Similarly	-6361
▁expanding	-6362
▁targeting	-6363
ño	-6364
ENT	-6365
erb	-6366
ños	-6367
▁dy	-6368
esse	-6369
etic	-6370
ológ	-6371
uits	-6372
▁Del	-6373
▁ske	-6374
▁William	-6375
▁podczas	-6376
establish	-6377
▁district	-6378
▁membrane	-6379
▁operated	-6380
▁navigation	-6381
uz	-6382
▁gé	-6383
▁où	-6384
agon	-6385
▁Jed	-6386
▁phr	-6387
▁naar	-6388
▁trav	-6389
ounded	-6390
▁unter	-6391
▁famous	-6392
▁islands	-6393
▁metrics	-6394
▁monarch	-6395
▁entities	-6396
▁buildings	-6397
▁combining	-6398
▁oversight	-6399
pen	-6400
ités	-6401
ruik	-6402
iffer	-6403
encing	-6404
▁puede	-6405
▁tends	-6406
▁weeks	-6407
▁emerge	-6408
▁friend	-6409
▁hebben	-6410
▁injury	-6411
▁questo	-6412
▁reflex	-6413
▁devices	-6414
▁concentrated	-6415
▁complementary	-6416
▁investigation	-6417
aat	-6418
iva	-6419
ową	-6420
▁Lou	-6421
▁map	-6422
▁pon	-6423
owane	-6424
▁roots	-6425
▁teams	-6426
▁waren	-6427
▁withd	-6428
illance	-6429
▁London	-6430
▁couldn	-6431
▁stages	-6432
▁neutral	-6433
▁carefully	-6434
▁achievement	-6435
▁preparation	-6436
▁sustainable	-6437
▁verschiedenen	-6438
fl	-6439
gu	-6440
tz	-6441
ała	-6442
osc	-6443
spe	-6444
wij	-6445
▁hu	-6446
ieke	-6447
▁pier	-6448
anging	-6449
ortion	-6450
▁wpływ	-6451
▁sought	-6452
▁trauma	-6453
▁housing	-6454
ibilities	-6455
▁officials	-6456
▁published	-6457
▁algorithms	-6458
uted	-6459
▁Bay	-6460
▁uni	-6461
teurs	-6462
▁dark	-6463
▁tree	-6464
ession	-6465
▁antic	-6466
▁ingredi	-6467
▁infinite	-6468
▁Australia	-6469
▁mechanics	-6470
▁organisms	-6471
▁kilometers	-6472
▁jurisdictions	-6473
*,	-6474
▁á	-6475
▁ci	-6476
aniu	-6477
▁bra	-6478
▁impl	-6479
▁cuando	-6480
▁calculate	-6481
▁divisions	-6482
▁improvement	-6483
▁standardized	-6484
eci	-6485
▁2,	-6486
▁Ur	-6487
eros	-6488
trum	-6489
▁Jak	-6490
▁kan	-6491
ested	-6492
▁City	-6493
▁eius	-6494
▁medi	-6495
▁merch	-6496
▁obser	-6497
▁taken	-6498
▁slight	-6499
specific	-6500
▁prevents	-6501
▁rzeczywiście	-6502
akt	-6503
eln	-6504
acja	-6505
▁dit	-6506
estim	-6507
stell	-6508
▁bott	-6509
▁wenn	-6510
idades	-6511
mental	-6512
▁dedic	-6513
▁estas	-6514
▁sched	-6515
▁wymag	-6516
▁hybrid	-6517
▁diferen	-6518
▁forming	-6519
▁friends	-6520
▁harmful	-6521
▁President	-6522
▁platforms	-6523
▁interested	-6524
▁television	-6525
▁Entwicklung	-6526
ht	-6527
▁24	-6528
▁ol	-6529
iste	-6530
omas	-6531
oster	-6532
ounts	-6533
▁zone	-6534
versely	-6535
▁Israel	-6536
▁master	-6537
▁police	-6538
▁shapes	-6539
izations	-6540
▁journey	-6541
▁elevated	-6542
▁reported	-6543
▁analytical	-6544
▁completamente	-6545
▁Dit	-6546
▁god	-6547
enced	-6548
nesses	-6549
▁lives	-6550
▁polar	-6551
▁voters	-6552
▁politics	-6553
▁relation	-6554
▁certainty	-6555
▁executive	-6556
▁selective	-6557
▁surveillance	-6558
▁methodologies	-6559
▁principalmente	-6560
mas	-6561
rew	-6562
folg	-6563
tivo	-6564
▁Jah	-6565
▁fab	-6566
▁sto	-6567
reich	-6568
▁Alex	-6569
▁firm	-6570
anning	-6571
owanie	-6572
▁liver	-6573
▁verte	-6574
▁justif	-6575
▁secular	-6576
▁applying	-6577
▁category	-6578
▁congress	-6579
▁repeated	-6580
▁prioritiz	-6581
▁preserving	-6582
AP	-6583
eft	-6584
kte	-6585
gent	-6586
ille	-6587
wood	-6588
metic	-6589
ticos	-6590
▁eyes	-6591
▁laun	-6592
▁cryst	-6593
▁leurs	-6594
▁overc	-6595
▁kontek	-6596
▁permet	-6597
▁applies	-6598
▁attract	-6599
▁journal	-6600
▁liberal	-6601
▁removal	-6602
▁employees	-6603
▁establishes	-6604
▁Constitution	-6605
ey	-6606
cel	-6607
ued	-6608
▁kw	-6609
▁arr	-6610
▁gew	-6611
▁crow	-6612
▁wave	-6613
▁users	-6614
▁współ	-6615
▁pieces	-6616
▁cardiac	-6617
▁imaging	-6618
▁mobility	-6619
▁painting	-6620
▁supports	-6621
▁residents	-6622
▁containing	-6623
▁emphasizes	-6624
▁innovations	-6625
▁uncertainty	-6626
zu	-6627
ele	-6628
▁pil	-6629
▁rol	-6630
aught	-6631
▁aber	-6632
▁clos	-6633
izione	-6634
▁attempts	-6635
▁deliberate	-6636
CT	-6637
dad	-6638
asta	-6639
cych	-6640
▁Paul	-6641
▁mamm	-6642
▁unus	-6643
▁virt	-6644
onsist	-6645
▁brief	-6646
▁doctors	-6647
▁prolong	-6648
▁estimates	-6649
▁association	-6650
▁tatsächlich	-6651
▁incorporating	-6652
▁sustainability	-6653
ohl	-6654
ogue	-6655
yroid	-6656
▁könn	-6657
▁stre	-6658
▁flood	-6659
▁annual	-6660
▁belong	-6661
▁diplom	-6662
▁économ	-6663
▁monetary	-6664
▁completed	-6665
▁intensity	-6666
▁numerical	-6667
▁infections	-6668
▁mathematics	-6669
▁verschillende	-6670
law	-6671
arse	-6672
▁Red	-6673
tigen	-6674
▁news	-6675
▁week	-6676
▁forma	-6677
▁neces	-6678
▁theat	-6679
▁formul	-6680
▁intric	-6681
▁privile	-6682
▁voltage	-6683
▁développ	-6684
▁preserve	-6685
▁otherwise	-6686
▁performed	-6687
▁presented	-6688
▁substanti	-6689
▁priorities	-6690
▁instability	-6691
▁differential	-6692
sz	-6693
▁Wr	-6694
eten	-6695
ided	-6696
▁vib	-6697
▁wel	-6698
▁wür	-6699
▁earn	-6700
▁wich	-6701
unicip	-6702
▁State	-6703
▁seine	-6704
▁Canada	-6705
▁battle	-6706
▁politic	-6707
efficient	-6708
▁belangrij	-6709
▁diagnosis	-6710
▁candidates	-6711
▁rappresenta	-6712
▁observations	-6713
▁consciousness	-6714
ać	-6715
▁&	-6716
acu	-6717
asi	-6718
edy	-6719
weg	-6720
▁AD	-6721
▁sn	-6722
agan	-6723
ault	-6724
irts	-6725
▁Art	-6726
▁był	-6727
pling	-6728
▁fung	-6729
▁merc	-6730
▁obst	-6731
▁społ	-6732
▁deleg	-6733
▁passed	-6734
▁switch	-6735
▁letters	-6736
▁noticed	-6737
▁visible	-6738
▁parallel	-6739
▁soldiers	-6740
▁eliminate	-6741
▁mainstream	-6742
ota	-6743
bero	-6744
gets	-6745
ican	-6746
kich	-6747
▁Ott	-6748
▁Spec	-6749
▁intu	-6750
▁tied	-6751
normal	-6752
▁apart	-6753
▁difer	-6754
▁dating	-6755
▁double	-6756
▁gather	-6757
▁rispet	-6758
▁started	-6759
▁worldwide	-6760
▁contradict	-6761
▁conventions	-6762
bb	-6763
eto	-6764
rog	-6765
▁$1	-6766
onia	-6767
▁Pra	-6768
▁box	-6769
▁lit	-6770
idents	-6771
▁cardiov	-6772
▁degrees	-6773
▁dietary	-6774
▁equations	-6775
▁disruption	-6776
▁legitimacy	-6777
tia	-6778
isme	-6779
osen	-6780
ostr	-6781
sche	-6782
▁Pac	-6783
▁San	-6784
▁aer	-6785
▁pes	-6786
ionali	-6787
▁plans	-6788
▁tussen	-6789
▁legally	-6790
▁profile	-6791
▁shaping	-6792
▁treated	-6793
▁confront	-6794
▁childhood	-6795
▁thousands	-6796
TH	-6797
UR	-6798
here	-6799
vari	-6800
▁Cor	-6801
▁Fin	-6802
▁ger	-6803
▁1950	-6804
▁esse	-6805
▁mund	-6806
▁Under	-6807
▁match	-6808
▁named	-6809
▁naval	-6810
▁wordt	-6811
▁enable	-6812
▁calcium	-6813
▁deliver	-6814
▁utilizz	-6815
▁caratter	-6816
▁eventual	-6817
▁religios	-6818
▁incorporated	-6819
eu	-6820
exp	-6821
ńst	-6822
onin	-6823
opol	-6824
▁bul	-6825
▁lub	-6826
▁rif	-6827
anged	-6828
orter	-6829
▁Post	-6830
▁coal	-6831
▁musc	-6832
▁check	-6833
▁donde	-6834
amiento	-6835
faceted	-6836
▁combat	-6837
▁patron	-6838
▁observe	-6839
▁adequate	-6840
▁resulted	-6841
▁assistance	-6842
▁difficulty	-6843
▁presentation	-6844
ctu	-6845
ilt	-6846
▁80	-6847
aken	-6848
elen	-6849
idos	-6850
▁Ass	-6851
▁cod	-6852
iling	-6853
▁anni	-6854
▁migr	-6855
amment	-6856
▁heeft	-6857
▁north	-6858
▁ranges	-6859
▁rooted	-6860
▁secure	-6861
▁designs	-6862
▁destroy	-6863
▁minimum	-6864
▁symbols	-6865
▁spectrum	-6866
▁expressed	-6867
],	-6868
ahl	-6869
azi	-6870
rec	-6871
ador	-6872
erte	-6873
illa	-6874
ieurs	-6875
rence	-6876
▁ever	-6877
▁ontw	-6878
▁push	-6879
▁front	-6880
▁norms	-6881
▁pover	-6882
▁sugar	-6883
▁table	-6884
▁disapp	-6885
▁divide	-6886
▁silver	-6887
economic	-6888
▁General	-6889
▁comment	-6890
▁inherit	-6891
▁section	-6892
▁evaluate	-6893
▁inconsist	-6894
▁terrorism	-6895
_2	-6896
eni	-6897
omy	-6898
oque	-6899
stęp	-6900
thod	-6901
▁cha	-6902
ständ	-6903
▁fing	-6904
▁maybe	-6905
▁doctor	-6906
▁Current	-6907
▁coeffic	-6908
▁hearing	-6909
▁konkret	-6910
▁enabling	-6911
▁geometry	-6912
▁syndrome	-6913
▁intricate	-6914
▁aggressive	-6915
▁pronounced	-6916
▁automatically	-6917
__	-6918
öß	-6919
lac	-6920
uur	-6921
iale	-6922
▁hij	-6923
edeut	-6924
▁Park	-6925
▁bias	-6926
▁meer	-6927
emical	-6928
urning	-6929
vision	-6930
▁adopt	-6931
▁noted	-6932
▁okreś	-6933
▁reign	-6934
▁zoals	-6935
omplete	-6936
▁flight	-6937
▁volunt	-6938
▁tactics	-6939
▁turning	-6940
▁complexe	-6941
▁transpar	-6942
▁convention	-6943
▁hypothesis	-6944
▁assumptions	-6945
▁simultaneous	-6946
AD	-6947
ché	-6948
▁Ju	-6949
aker	-6950
ereb	-6951
otic	-6952
▁Rec	-6953
▁Val	-6954
▁bee	-6955
▁try	-6956
▁wit	-6957
ellow	-6958
state	-6959
▁duty	-6960
▁roll	-6961
▁intim	-6962
▁layer	-6963
▁slave	-6964
▁solar	-6965
▁eating	-6966
▁festiv	-6967
▁metaph	-6968
▁statut	-6969
▁versati	-6970
▁hierarchy	-6971
▁cardiovascular	-6972
jo	-6973
ajo	-6974
ało	-6975
jsk	-6976
ypt	-6977
zej	-6978
▁Es	-6979
burg	-6980
ello	-6981
fici	-6982
isen	-6983
▁nad	-6984
entia	-6985
tific	-6986
▁anno	-6987
▁oral	-6988
▁upper	-6989
▁Senate	-6990
▁assemb	-6991
▁office	-6992
▁poetry	-6993
▁questi	-6994
▁regist	-6995
tainment	-6996
▁knowing	-6997
▁returns	-6998
▁survive	-6999
▁globally	-7000
▁isolation	-7001
▁constitutes	-7002
▁destruction	-7003
▁professionals	-7004
pus	-7005
echn	-7006
▁Gal	-7007
▁III	-7008
▁fir	-7009
▁gli	-7010
▁odp	-7011
▁sod	-7012
rowad	-7013
nement	-7014
▁Federal	-7015
▁coastal	-7016
▁advertis	-7017
▁flexible	-7018
▁integral	-7019
▁treating	-7020
▁attributed	-7021
▁settlement	-7022
▁correlation	-7023
ały	-7024
▁Ed	-7025
icos	-7026
omal	-7027
orie	-7028
▁ign	-7029
▁lok	-7030
ourse	-7031
▁birds	-7032
▁pione	-7033
▁pragm	-7034
▁react	-7035
▁spher	-7036
▁woman	-7037
osphere	-7038
▁preval	-7039
▁respir	-7040
▁smooth	-7041
▁styles	-7042
▁ontwikk	-7043
▁reverse	-7044
▁utility	-7045
▁compleja	-7046
▁describes	-7047
▁sensitivity	-7048
▁transitions	-7049
▁translation	-7050
▁hierarchical	-7051
▁effettivamente	-7052
äs	-7053
ób	-7054
▁ax	-7055
etro	-7056
fond	-7057
stein	-7058
▁More	-7059
▁deut	-7060
▁tych	-7061
hesion	-7062
▁select	-7063
▁themes	-7064
▁charges	-7065
▁feeling	-7066
▁gebruik	-7067
▁różnych	-7068
▁administr	-7069
▁mortality	-7070
▁/	-7071
uis	-7072
▁70	-7073
▁ég	-7074
ener	-7075
imal	-7076
resh	-7077
▁Fil	-7078
▁wid	-7079
szyst	-7080
▁sold	-7081
undred	-7082
▁hanno	-7083
▁sport	-7084
▁voter	-7085
▁agents	-7086
▁marine	-7087
ithmetic	-7088
▁hunting	-7089
▁removed	-7090
▁subjects	-7091
▁arguments	-7092
▁attitudes	-7093
▁particuli	-7094
▁productivity	-7095
▁traditionally	-7096
▁(2	-7097
aper	-7098
itud	-7099
rame	-7100
▁mac	-7101
▁sav	-7102
▁sho	-7103
ishes	-7104
▁thus	-7105
atural	-7106
▁Spain	-7107
▁displ	-7108
▁rhyth	-7109
▁strat	-7110
▁takes	-7111
▁aligns	-7112
▁amounts	-7113
▁comport	-7114
▁healthy	-7115
▁organic	-7116
▁planned	-7117
▁collapse	-7118
▁societal	-7119
▁bacterial	-7120
▁synthetic	-7121
▁satisfaction	-7122
gr	-7123
bst	-7124
cht	-7125
lym	-7126
spr	-7127
uns	-7128
▁Ak	-7129
▁ik	-7130
abet	-7131
atal	-7132
▁Non	-7133
▁Sie	-7134
▁eye	-7135
▁può	-7136
▁sig	-7137
anism	-7138
rency	-7139
▁gonna	-7140
▁Commun	-7141
▁proxim	-7142
ologists	-7143
▁Despite	-7144
▁ambient	-7145
▁portion	-7146
▁sectors	-7147
▁December	-7148
▁alignment	-7149
▁economies	-7150
▁excessive	-7151
▁plusieurs	-7152
▁posterior	-7153
▁neurological	-7154
abs	-7155
oni	-7156
wol	-7157
ambi	-7158
gery	-7159
iser	-7160
▁Fol	-7161
▁Mor	-7162
▁civ	-7163
itime	-7164
▁Mong	-7165
▁peut	-7166
▁warm	-7167
▁prawd	-7168
▁native	-7169
▁potest	-7170
▁feeding	-7171
▁viewing	-7172
▁viability	-7173
▁complement	-7174
▁depression	-7175
▁psychology	-7176
▁accommodate	-7177
▁comparisons	-7178
▁exploration	-7179
▁foundations	-7180
▁identifying	-7181
_2">	-7182
fact	-7183
aktor	-7184
▁rout	-7185
▁added	-7186
▁entit	-7187
▁lived	-7188
▁Jednak	-7189
▁People	-7190
▁degrad	-7191
▁derived	-7192
▁kingdom	-7193
▁metabol	-7194
▁sensory	-7195
▁station	-7196
▁sections	-7197
▁difficile	-7198
▁procedure	-7199
▁receiving	-7200
▁assessments	-7201
▁unconscious	-7202
-20	-7203
agne	-7204
ells	-7205
ulum	-7206
which	-7207
stance	-7208
▁Egypt	-7209
▁mitig	-7210
▁estate	-7211
▁vessels	-7212
▁balanced	-7213
▁rispetto	-7214
▁computers	-7215
▁equivalent	-7216
▁equilibrium	-7217
▁programming	-7218
▁coefficients	-7219
▁congressional	-7220
équ	-7221
mica	-7222
orte	-7223
tere	-7224
tism	-7225
▁Mad	-7226
known	-7227
mento	-7228
▁fort	-7229
▁zach	-7230
▁estos	-7231
▁okres	-7232
▁Arabic	-7233
▁Native	-7234
▁argued	-7235
▁differs	-7236
▁holding	-7237
▁momentum	-7238
▁velocity	-7239
▁encountering	-7240
2%	-7241
bra	-7242
▁ca	-7243
ford	-7244
vest	-7245
▁Dar	-7246
▁iden	-7247
▁werd	-7248
terior	-7249
▁praes	-7250
▁grande	-7251
▁wszyst	-7252
▁circuit	-7253
▁existed	-7254
▁disputes	-7255
▁politycz	-7256
▁surfaces	-7257
▁questione	-7258
established	-7259
▁alternatives	-7260
▁{	-7261
sto	-7262
uni	-7263
▁Hen	-7264
termin	-7265
▁alleg	-7266
▁credi	-7267
▁dimin	-7268
▁parad	-7269
▁polyn	-7270
▁stock	-7271
▁acquis	-7272
▁parlia	-7273
▁physic	-7274
▁prosec	-7275
▁exposed	-7276
▁poverty	-7277
▁accepted	-7278
▁normally	-7279
▁parental	-7280
▁surgical	-7281
▁Conversely	-7282
▁transformations	-7283
8%	-7284
TP	-7285
ác	-7286
cks	-7287
har	-7288
▁Ih	-7289
czes	-7290
olle	-7291
▁dra	-7292
antly	-7293
itize	-7294
using	-7295
▁Plan	-7296
▁doll	-7297
▁impr	-7298
orough	-7299
▁curve	-7300
erative	-7301
uilding	-7302
▁online	-7303
▁string	-7304
inations	-7305
▁clients	-7306
▁possunt	-7307
▁symmetry	-7308
▁Americans	-7309
▁Democratic	-7310
▁constructed	-7311
-3	-7312
uth	-7313
rish	-7314
stra	-7315
▁mét	-7316
▁web	-7317
▁cómo	-7318
▁führ	-7319
▁gall	-7320
imento	-7321
▁embed	-7322
▁przyp	-7323
▁resil	-7324
▁Comment	-7325
▁analyze	-7326
▁learned	-7327
▁extraord	-7328
▁identical	-7329
▁inequality	-7330
▁recommended	-7331
▁multifaceted	-7332
ST	-7333
ijd	-7334
▁Ag	-7335
▁Cub	-7336
cheid	-7337
ented	-7338
▁guer	-7339
orient	-7340
▁ihrer	-7341
▁podej	-7342
▁route	-7343
▁depart	-7344
▁undermin	-7345
▁complexes	-7346
▁instruction	-7347
▁sovereignty	-7348
▁configuration	-7349
rot	-7350
▁ai	-7351
ager	-7352
angu	-7353
asso	-7354
fish	-7355
▁wob	-7356
ativa	-7357
▁gast	-7358
▁quad	-7359
▁spieg	-7360
▁bereits	-7361
▁minutes	-7362
▁replaced	-7363
▁addresses	-7364
▁arithmetic	-7365
▁persistence	-7366
def	-7367
isp	-7368
van	-7369
▁CE	-7370
anes	-7371
enda	-7372
kowo	-7373
▁Prim	-7374
▁alph	-7375
▁czas	-7376
▁même	-7377
▁Louis	-7378
▁utiliz	-7379
▁Emperor	-7380
▁municip	-7381
▁possono	-7382
▁samples	-7383
▁społecz	-7384
▁districts	-7385
▁statement	-7386
▁substance	-7387
▁advertising	-7388
▁insufficient	-7389
hne	-7390
▁GDP	-7391
▁Oct	-7392
▁Sal	-7393
▁pip	-7394
tices	-7395
▁Cent	-7396
▁fait	-7397
▁kids	-7398
▁ship	-7399
▁went	-7400
▁newsp	-7401
▁union	-7402
▁border	-7403
▁define	-7404
▁impair	-7405
▁invent	-7406
▁placed	-7407
asticity	-7408
▁terrest	-7409
▁maritime	-7410
▁approfond	-7411
▁preparing	-7412
▁prioritize	-7413
▁validation	-7414
ös	-7415
isk	-7416
zza	-7417
book	-7418
itas	-7419
▁Lib	-7420
▁aes	-7421
▁tam	-7422
▁exac	-7423
▁town	-7424
▁user	-7425
▁vide	-7426
▁Studi	-7427
▁alloc	-7428
▁eight	-7429
▁escal	-7430
▁prove	-7431
▁south	-7432
▁fossil	-7433
▁stance	-7434
▁tradiz	-7435
enschaft	-7436
▁Northern	-7437
▁fighting	-7438
▁vertical	-7439
▁proportion	-7440
▁replication	-7441
ams	-7442
▁km	-7443
aine	-7444
anse	-7445
head	-7446
opod	-7447
legal	-7448
▁Pour	-7449
▁cham	-7450
▁crop	-7451
▁czyn	-7452
titude	-7453
▁title	-7454
▁enzyme	-7455
▁images	-7456
▁altered	-7457
▁married	-7458
▁approval	-7459
▁factores	-7460
▁feelings	-7461
▁intention	-7462
▁diferentes	-7463
▁polynomial	-7464
ool	-7465
uck	-7466
ittà	-7467
▁lie	-7468
ciones	-7469
▁Italy	-7470
▁decay	-7471
▁flows	-7472
▁klucz	-7473
▁wider	-7474
▁assets	-7475
▁colors	-7476
▁Charles	-7477
▁Pacific	-7478
▁approche	-7479
▁judgment	-7480
▁memories	-7481
▁distances	-7482
▁varieties	-7483
▁prediction	-7484
▁accountability	-7485
éd	-7486
insi	-7487
till	-7488
▁Rel	-7489
▁raw	-7490
chron	-7491
ecess	-7492
estra	-7493
icide	-7494
ictor	-7495
▁1930	-7496
▁Norm	-7497
▁date	-7498
▁rank	-7499
▁wiel	-7500
ribute	-7501
▁March	-7502
▁infer	-7503
▁mobil	-7504
▁sharp	-7505
▁tanto	-7506
ionales	-7507
▁Govern	-7508
▁fabric	-7509
▁représ	-7510
▁relying	-7511
▁resolve	-7512
▁willing	-7513
▁produces	-7514
▁classified	-7515
▁punishment	-7516
▁description	-7517
▁functioning	-7518
ION	-7519
ban	-7520
key	-7521
vey	-7522
tier	-7523
▁Ces	-7524
itory	-7525
ktion	-7526
▁tout	-7527
▁swoje	-7528
▁acting	-7529
▁sudden	-7530
▁summer	-7531
▁tradic	-7532
▁picture	-7533
▁reports	-7534
▁shifted	-7535
▁slightly	-7536
▁algorithm	-7537
▁estimated	-7538
▁improving	-7539
▁compromised	-7540
▁proceedings	-7541
vin	-7542
▁Mi	-7543
acje	-7544
rica	-7545
▁Bab	-7546
▁Pre	-7547
▁gam	-7548
ropol	-7549
▁bron	-7550
itting	-7551
▁Organ	-7552
▁crime	-7553
▁metod	-7554
▁losing	-7555
▁anticip	-7556
▁statistics	-7557
▁struggling	-7558
▁university	-7559
▁opportunity	-7560
umn	-7561
▁TO	-7562
▁va	-7563
hamm	-7564
nung	-7565
timm	-7566
▁BCE	-7567
▁Nob	-7568
▁aid	-7569
▁uży	-7570
idden	-7571
▁Arch	-7572
▁attr	-7573
▁fuer	-7574
▁Frage	-7575
▁aplic	-7576
▁decor	-7577
▁eigen	-7578
▁noise	-7579
▁phone	-7580
▁comfort	-7581
▁hundred	-7582
▁Solution	-7583
▁enduring	-7584
▁emergence	-7585
▁quantities	-7586
▁calculating	-7587
▁encountered	-7588
▁collaboration	-7589
▁multiplication	-7590
uv	-7591
chi	-7592
han	-7593
uen	-7594
▁gh	-7595
pret	-7596
▁fav	-7597
▁gel	-7598
atura	-7599
trans	-7600
▁chec	-7601
▁gradi	-7602
▁connec	-7603
function	-7604
▁unusual	-7605
▁caracter	-7606
▁commerce	-7607
▁discovered	-7608
▁innovative	-7609
▁spécifiques	-7610
▁quantitative	-7611
yk	-7612
500	-7613
orr	-7614
tał	-7615
imes	-7616
▁hey	-7617
▁kne	-7618
▁tub	-7619
asure	-7620
bbero	-7621
dycyj	-7622
▁Conf	-7623
▁Janu	-7624
▁Mark	-7625
▁nerv	-7626
▁quar	-7627
▁desde	-7628
▁prime	-7629
ruption	-7630
▁Victor	-7631
▁europe	-7632
▁losses	-7633
▁museum	-7634
pressive	-7635
▁Protest	-7636
▁enterpr	-7637
▁engaging	-7638
▁promoting	-7639
▁succession	-7640
▁influencing	-7641
▁intermediate	-7642
kon	-7643
lug	-7644
ois	-7645
kiem	-7646
ppen	-7647
well	-7648
wers	-7649
wiąz	-7650
▁cav	-7651
▁guy	-7652
▁voc	-7653
ilipp	-7654
▁drop	-7655
▁lors	-7656
cience	-7657
▁forec	-7658
▁steel	-7659
▁prison	-7660
▁remove	-7661
▁Ottoman	-7662
▁running	-7663
▁dependent	-7664
▁ceremonial	-7665
▁circulation	-7666
▁nutritional	-7667
net	-7668
opl	-7669
pol	-7670
ację	-7671
inos	-7672
umes	-7673
▁deux	-7674
▁efec	-7675
▁gluc	-7676
▁lots	-7677
▁road	-7678
roscop	-7679
thodox	-7680
▁expon	-7681
▁persu	-7682
▁skill	-7683
▁wrote	-7684
▁rebell	-7685
▁marking	-7686
▁meeting	-7687
▁variety	-7688
amination	-7689
▁everyone	-7690
▁withdraw	-7691
▁consulting	-7692
▁identification	-7693
ho	-7694
yg	-7695
aar	-7696
bol	-7697
ompl	-7698
▁180	-7699
▁Bur	-7700
▁mec	-7701
▁tut	-7702
▁embr	-7703
▁salt	-7704
▁stic	-7705
ighter	-7706
urable	-7707
▁diffé	-7708
▁moist	-7709
▁waves	-7710
▁binary	-7711
▁contex	-7712
▁exceed	-7713
▁varied	-7714
▁anderen	-7715
▁classic	-7716
▁standing	-7717
▁universe	-7718
▁dedicated	-7719
▁generated	-7720
▁remarkably	-7721
▁exceptional	-7722
▁motivations	-7723
▁orientation	-7724
▁publication	-7725
▁replacement	-7726
7%	-7727
AM	-7728
hm	-7729
ój	-7730
rut	-7731
▁Hu	-7732
▁ST	-7733
ltim	-7734
▁zar	-7735
▁2008	-7736
▁Rome	-7737
▁Sept	-7738
▁Zeit	-7739
Answer	-7740
uguese	-7741
▁ainsi	-7742
▁coinc	-7743
▁selon	-7744
ircraft	-7745
▁thyroid	-7746
▁vehicle	-7747
▁alliance	-7748
▁moderate	-7749
▁revealed	-7750
▁navigating	-7751
▁retirement	-7752
▁conflicting	-7753
▁controlling	-7754
▁definitions	-7755
cos	-7756
otes	-7757
tycz	-7758
unta	-7759
▁Bel	-7760
▁ath	-7761
▁pel	-7762
▁tum	-7763
▁zak	-7764
▁blue	-7765
▁bure	-7766
▁plas	-7767
▁sand	-7768
ambién	-7769
▁disag	-7770
▁drugs	-7771
▁gains	-7772
▁secre	-7773
icznych	-7774
▁Faktor	-7775
▁Region	-7776
▁democr	-7777
▁linked	-7778
▁offered	-7779
▁richied	-7780
▁captured	-7781
▁controls	-7782
▁millions	-7783
▁ultimate	-7784
▁breakdown	-7785
▁reinforce	-7786
▁rejection	-7787
▁desarrollo	-7788
▁laboratory	-7789
▁practition	-7790
▁efficiently	-7791
▁	-7792
e	-7793
i	-7794
t	-7795
a	-7796
n	-7797
o	-7798
s	-7799
r	-7800
l	-7801
c	-7802
h	-7803
d	-7804
u	-7805
m	-7806
p	-7807
g	-7808
f	-7809
y	-7810
w	-7811
b	-7812
v	-7813
,	-7814
.	-7815
k	-7816
z	-7817
T	-7818
x	-7819
'	-7820
-	-7821
q	-7822
I	-7823
j	-7824
S	-7825
A	-7826
C	-7827
H	-7828
1	-7829
"	-7830
0	-7831
é	-7832
E	-7833
W	-7834
M	-7835
P	-7836
B	-7837
D	-7838
*	-7839
R	-7840
2	-7841
L	-7842
?	-7843
N	-7844
F	-7845
ó	-7846
9	-7847
G	-7848
)	-7849
(	-7850
O	-7851
ł	-7852
5	-7853
U	-7854
8	-7855
3	-7856
:	-7857
K	-7858
4	-7859
6	-7860
7	-7861
ą	-7862
V	-7863
J	-7864
ę	-7865
Y	-7866
ż	-7867
ä	-7868
í	-7869
ś	-7870
ü	-7871
è	-7872
à	-7873
á	-7874
=	-7875
%	-7876
/	-7877
ć	-7878
ö	-7879
Z	-7880
Q	-7881
>	-7882
X	-7883
<	-7884
’	-7885
_	-7886
ſ	-7887
`	-7888
—	-7889
ń	-7890
+	-7891
ù	-7892
$	-7893
#	-7894
ú	-7895
ß	-7896
ñ	-7897
ê	-7898
;	-7899
[	-7900
]	-7901
×	-7902
!	-7903
ò	-7904
¿	-7905
ô	-7906
ë	-7907
ā	-7908
”	-7909
|	-7910
ç	-7911
°	-7912
“	-7913
²	-7914
ź	-7915
–	-7916
ï	-7917
ا	-7918
^	-7919
É	-7920
ì	-7921
&	-7922
{	-7923
}	-7924
₂	-7925
ل	-7926
Ü	-7927
ي	-7928
ō	-7929
و	-7930
â	-7931
